<unk>	0
<s>	0
</s>	0
<PAD>	0
,	-3.17035
s	-3.29372
.	-3.32567
▁the	-3.33104
▁to	-3.58015
▁and	-3.71379
▁a	-3.84183
▁of	-4.3563
▁is	-4.39424
▁in	-4.47252
▁his	-4.49413
'	-4.56905
▁her	-4.63751
▁he	-4.75594
▁	-4.79297
▁with	-4.8427
▁that	-4.85535
▁(	-5.00273
ing	-5.06761
▁for	-5.11416
▁him	-5.15174
▁she	-5.33005
▁by	-5.36193
-	-5.43402
ed	-5.47195
▁on	-5.48975
▁who	-5.4975
▁The	-5.58149
)	-5.61197
▁but	-5.62397
▁has	-5.62893
▁as	-5.72292
▁at	-5.7392
▁from	-5.74323
▁an	-5.74954
t	-5.78126
▁their	-5.80996
d	-5.81667
▁they	-5.82918
▁are	-5.97581
▁He	-5.9775
▁out	-6.01768
▁it	-6.05974
▁up	-6.06266
),	-6.12018
▁"	-6.12089
ly	-6.1385
▁be	-6.14464
e	-6.14652
y	-6.14851
er	-6.23845
▁not	-6.30579
n	-6.30805
▁into	-6.33011
▁them	-6.33373
▁when	-6.33882
a	-6.35477
▁was	-6.39492
▁about	-6.45956
"	-6.48186
▁after	-6.491
▁A	-6.57431
▁which	-6.57807
▁have	-6.58327
▁She	-6.59047
▁father	-6.61083
▁When	-6.63163
▁one	-6.65915
r	-6.6972
▁will	-6.69948
▁back	-6.70462
▁where	-6.72277
▁home	-6.72293
▁In	-6.76788
o	-6.77027
▁tells	-6.78309
▁After	-6.8011
c	-6.80833
▁then	-6.81733
es	-6.82574
▁all	-6.83241
▁get	-6.83787
▁two	-6.8416
▁love	-6.84171
in	-6.85251
▁had	-6.85736
▁family	-6.87809
i	-6.88568
▁man	-6.89308
▁life	-6.90781
▁while	-6.92593
al	-6.92989
▁been	-6.93638
▁mother	-6.93803
▁time	-6.93912
▁film	-6.96505
g	-6.97122
▁so	-6.98352
▁house	-6.98911
u	-6.9937
▁off	-7.00285
▁other	-7.00943
▁wife	-7.01715
re	-7.02036
▁go	-7.02372
▁also	-7.02464
▁They	-7.02547
▁this	-7.02571
▁can	-7.02886
▁over	-7.04257
).	-7.0533
▁being	-7.06277
▁only	-7.07868
;	-7.08117
▁day	-7.09159
b	-7.10202
▁find	-7.10496
▁money	-7.10645
▁goes	-7.11606
▁son	-7.11943
▁new	-7.12178
▁finds	-7.12189
m	-7.14855
▁As	-7.18339
k	-7.20126
on	-7.20818
▁take	-7.2093
▁takes	-7.2164
▁help	-7.22381
▁before	-7.22551
▁car	-7.2274
an	-7.23252
▁night	-7.23354
▁give	-7.24267
▁daughter	-7.26384
▁himself	-7.26446
le	-7.27941
or	-7.2932
▁friend	-7.30036
▁police	-7.3034
▁gets	-7.30848
man	-7.30857
▁young	-7.31144
▁away	-7.31698
en	-7.31788
▁first	-7.32038
▁make	-7.32207
▁down	-7.32327
▁school	-7.32924
▁own	-7.35419
▁becomes	-7.35561
▁tries	-7.3653
▁more	-7.36736
l	-7.3785
▁decides	-7.38999
ri	-7.39262
▁later	-7.40109
▁leave	-7.4085
▁At	-7.4085
▁no	-7.41371
▁S	-7.42111
p	-7.42399
▁work	-7.43021
st	-7.4374
▁leaves	-7.43825
▁does	-7.44833
▁next	-7.45675
▁now	-7.46034
th	-7.46409
h	-7.46428
ion	-7.46591
▁because	-7.47556
▁woman	-7.47781
▁way	-7.48184
▁However	-7.49281
▁friends	-7.50062
▁asks	-7.51429
▁comes	-7.51647
▁husband	-7.5179
▁there	-7.52914
▁what	-7.52979
f	-7.53882
▁job	-7.54225
ra	-7.54506
▁having	-7.55268
▁another	-7.55295
▁B	-7.55742
▁see	-7.55981
se	-7.56379
la	-7.56429
▁returns	-7.56459
▁some	-7.56546
▁do	-7.57539
▁if	-7.58077
ur	-7.59079
▁again	-7.59949
▁begins	-7.60282
ro	-7.60526
▁both	-7.60582
▁New	-7.60613
▁re	-7.61248
▁men	-7.61271
ll	-7.6162
▁through	-7.62265
▁story	-7.63037
S	-7.63723
ar	-7.63782
ie	-7.64172
▁return	-7.64219
’	-7.64394
▁years	-7.64443
▁relationship	-7.64614
▁town	-7.65038
ne	-7.65338
ir	-7.65462
▁girl	-7.65523
▁John	-7.65858
▁meets	-7.66254
▁death	-7.66392
▁become	-7.66745
▁wants	-7.66841
na	-7.67352
▁C	-7.67796
▁While	-7.6951
▁end	-7.69553
▁party	-7.69865
el	-7.69902
▁brother	-7.70787
▁together	-7.71015
il	-7.71541
▁each	-7.72193
ta	-7.72777
during	-7.72924
▁just	-7.7364
sh	-7.73817
▁married	-7.74164
:	-7.74406
▁local	-7.74587
▁would	-7.75135
▁come	-7.76008
ic	-7.76255
▁O	-7.76378
▁or	-7.76646
lo	-7.7675
▁named	-7.76785
li	-7.77733
▁room	-7.77752
▁old	-7.77876
▁Jack	-7.77908
it	-7.78001
ation	-7.78626
▁well	-7.79162
▁un	-7.79279
ton	-7.80475
▁how	-7.80505
▁arrives	-7.80905
ma	-7.81254
▁marriage	-7.81359
▁marry	-7.82033
▁sees	-7.82999
▁still	-7.83326
▁Meanwhile	-7.83788
▁children	-7.83929
▁ends	-7.84434
▁soon	-7.85105
▁Dr	-7.85613
▁makes	-7.86093
▁like	-7.86133
▁finally	-7.86531
▁show	-7.86602
▁between	-7.86963
▁three	-7.87238
▁parents	-7.87239
ter	-7.87372
C	-7.88487
am	-7.89186
▁discovers	-7.90096
▁even	-7.90556
▁meet	-7.90567
▁His	-7.91684
▁team	-7.91892
▁refuses	-7.92051
▁against	-7.92814
▁killed	-7.92871
▁Joe	-7.9295
▁falls	-7.93441
▁child	-7.93504
▁T	-7.94279
▁under	-7.94803
ul	-7.95126
▁But	-7.95364
▁says	-7.9547
▁reveals	-7.95551
▁eventually	-7.95629
▁de	-7.96117
A	-7.96548
w	-7.96961
▁bring	-7.97146
▁head	-7.97238
te	-7.97464
▁On	-7.97547
▁I	-7.97701
▁same	-7.9775
▁To	-7.97935
son	-7.98065
▁Mary	-7.98597
ers	-7.98775
ch	-7.99148
▁learns	-7.99158
▁fight	-7.99644
▁turns	-7.9994
to	-8.00207
▁much	-8.00301
▁sister	-8.00368
▁run	-8.00689
▁people	-8.01009
z	-8.01031
ce	-8.01496
▁until	-8.01643
▁d	-8.01954
▁hospital	-8.02034
▁K	-8.02474
▁York	-8.02601
▁place	-8.02606
▁group	-8.02681
ine	-8.03041
▁left	-8.03164
▁attempts	-8.03345
▁lives	-8.03381
▁One	-8.03616
▁attempt	-8.03791
▁Ma	-8.03921
vi	-8.04054
▁G	-8.04092
▁Re	-8.04164
▁George	-8.04281
▁P	-8.04428
▁than	-8.0448
x	-8.04822
B	-8.05991
▁never	-8.06029
▁plan	-8.06197
▁agrees	-8.06441
▁D	-8.06705
v	-8.06771
▁escape	-8.07895
▁order	-8.08144
▁very	-8.08213
ol	-8.08375
da	-8.08522
▁Mr	-8.08574
▁live	-8.08833
▁herself	-8.08979
▁going	-8.09009
▁along	-8.0962
▁long	-8.09943
▁starts	-8.10336
▁boy	-8.10427
▁leaving	-8.10441
▁last	-8.11507
ia	-8.1152
▁couple	-8.11576
▁J	-8.1165
▁realizes	-8.11802
▁put	-8.12243
▁around	-8.12736
id	-8.13233
▁whom	-8.13544
▁Dur	-8.13971
ad	-8.1421
▁kill	-8.14312
▁too	-8.14466
▁apartment	-8.14608
▁former	-8.14899
▁Tom	-8.1495
▁wedding	-8.14968
▁It	-8.15147
▁good	-8.15796
ti	-8.16145
▁women	-8.16246
▁were	-8.16752
co	-8.17005
▁Later	-8.17294
▁stay	-8.17364
de	-8.17589
▁murder	-8.17847
▁business	-8.18129
▁runs	-8.18348
▁convince	-8.18747
mi	-8.1882
us	-8.18983
▁part	-8.18989
▁game	-8.19044
▁set	-8.19152
ty	-8.19277
up	-8.1939
▁train	-8.19465
▁play	-8.19495
▁tell	-8.20089
▁This	-8.20201
ist	-8.20237
▁real	-8.20316
▁Paul	-8.20325
and	-8.20597
▁dead	-8.20703
be	-8.20936
▁f	-8.20976
is	-8.21161
▁p	-8.21189
▁sex	-8.21446
▁b	-8.21487
▁Ben	-8.21882
▁calls	-8.2197
ve	-8.22326
old	-8.22597
▁Harry	-8.22665
▁without	-8.23004
▁movie	-8.23491
▁however	-8.23697
▁With	-8.23702
▁bar	-8.23925
▁E	-8.23938
ive	-8.24162
at	-8.24389
et	-8.24545
▁St	-8.24545
▁small	-8.24685
ment	-8.24978
im	-8.252
ni	-8.25289
▁trying	-8.2556
▁affair	-8.25589
ru	-8.25621
▁know	-8.25772
▁must	-8.25936
▁any	-8.26004
di	-8.26094
▁send	-8.26107
ant	-8.26328
▁shows	-8.26855
▁De	-8.27539
ent	-8.27572
▁since	-8.27739
T	-8.27834
me	-8.27856
▁call	-8.28041
▁hotel	-8.28258
▁name	-8.28368
less	-8.28382
▁working	-8.2858
▁village	-8.28877
▁want	-8.29079
▁offers	-8.29086
▁high	-8.29285
▁company	-8.29291
▁Mrs	-8.29318
".	-8.29341
able	-8.29363
▁Sam	-8.2943
ry	-8.29606
▁living	-8.29817
▁keep	-8.29951
▁best	-8.30204
▁let	-8.30613
▁doctor	-8.30781
."	-8.30994
▁ex	-8.31543
▁girlfriend	-8.31589
▁found	-8.31665
▁baby	-8.31834
▁Michael	-8.32007
▁morning	-8.32269
▁doesn	-8.32584
▁taken	-8.32588
I	-8.32681
▁American	-8.32688
▁F	-8.32857
▁visit	-8.33035
▁once	-8.33177
▁Mike	-8.33404
▁Peter	-8.33554
▁scene	-8.34338
um	-8.34647
▁try	-8.34675
▁co	-8.34752
▁instead	-8.34873
R	-8.35209
the	-8.35222
▁confront	-8.35548
▁gun	-8.35559
▁decide	-8.35852
▁Her	-8.35925
▁An	-8.35992
ley	-8.36288
▁start	-8.36307
ous	-8.36368
▁due	-8.36574
▁hand	-8.36581
▁spend	-8.3673
▁Bill	-8.36816
as	-8.36926
▁Al	-8.37049
▁stop	-8.37082
P	-8.37098
▁getting	-8.37156
▁David	-8.37197
▁plans	-8.37252
▁made	-8.37364
▁U	-8.37724
▁including	-8.37776
▁La	-8.378
▁several	-8.37816
ho	-8.3788
J	-8.37955
▁though	-8.38195
un	-8.38655
▁Mo	-8.39192
▁Max	-8.39246
▁W	-8.39295
▁Frank	-8.39534
ke	-8.40029
ck	-8.40244
▁body	-8.40265
▁war	-8.40361
▁Ra	-8.40466
▁pay	-8.40789
▁many	-8.40976
▁care	-8.41081
ish	-8.41121
▁dies	-8.41197
▁cannot	-8.4143
▁arrive	-8.41716
▁Bob	-8.41763
▁fire	-8.42013
ya	-8.42269
▁gang	-8.4259
D	-8.43192
▁Henry	-8.43265
▁turn	-8.43634
ard	-8.43716
ity	-8.44186
ner	-8.44411
▁taking	-8.44785
▁office	-8.45049
▁prison	-8.4529
▁past	-8.45311
year	-8.45565
G	-8.46117
▁case	-8.46279
▁ship	-8.46336
▁city	-8.47341
▁Na	-8.47575
▁inform	-8.47697
ful	-8.477
▁making	-8.4773
▁works	-8.47919
dy	-8.48184
▁Johnny	-8.48303
ling	-8.48428
▁discover	-8.48442
ig	-8.48476
▁final	-8.48562
▁station	-8.49034
▁everyone	-8.49166
▁Charlie	-8.49195
▁few	-8.49427
▁behind	-8.49673
▁world	-8.49818
▁break	-8.50128
ha	-8.50179
hi	-8.50285
▁telling	-8.50392
▁boys	-8.50492
▁use	-8.50573
▁secret	-8.50642
▁suicide	-8.50706
by	-8.50769
▁begin	-8.50821
ting	-8.51257
▁called	-8.51623
▁believes	-8.52067
—	-8.52106
ver	-8.52201
▁Le	-8.52246
est	-8.52416
▁owner	-8.52423
▁close	-8.52576
",	-8.53002
▁forced	-8.53239
▁meeting	-8.53447
▁Ka	-8.53835
▁shot	-8.53871
ki	-8.539
▁Jim	-8.53904
ge	-8.54022
▁fall	-8.54031
▁move	-8.54244
▁con	-8.54324
▁star	-8.54383
ness	-8.54556
ff	-8.54694
▁Man	-8.54931
▁girls	-8.55102
▁wealthy	-8.55276
▁able	-8.55412
▁War	-8.55639
▁Bo	-8.56154
ian	-8.56201
▁sent	-8.56206
▁free	-8.56326
mo	-8.56396
▁could	-8.5641
▁Mar	-8.56457
po	-8.56472
▁breaks	-8.56503
▁actually	-8.56506
▁book	-8.56662
der	-8.56791
▁court	-8.57018
K	-8.5708
▁Billy	-8.574
▁alone	-8.57558
▁boss	-8.57696
▁door	-8.57854
▁attack	-8.5809
▁face	-8.58183
pe	-8.5826
▁heart	-8.58389
▁arrested	-8.58544
ther	-8.58619
▁M	-8.58786
▁dinner	-8.58954
▁Nick	-8.59049
▁officer	-8.59538
ger	-8.5986
▁college	-8.6066
▁manages	-8.60945
tic	-8.61077
▁store	-8.61092
▁R	-8.61197
▁rest	-8.61455
▁save	-8.61488
▁right	-8.61712
▁outside	-8.6185
va	-8.61912
ka	-8.61965
▁interest	-8.61984
▁Co	-8.6221
▁allow	-8.6236
▁invite	-8.62538
▁told	-8.6259
▁Ho	-8.62705
▁trip	-8.62748
land	-8.62904
ee	-8.62936
▁Sa	-8.63239
▁Jimmy	-8.63468
▁Steve	-8.63635
he	-8.63638
▁deal	-8.63674
▁dog	-8.63835
▁London	-8.63865
▁Ro	-8.63916
▁phone	-8.6408
▁Jo	-8.64233
▁explains	-8.64344
▁talk	-8.64487
▁So	-8.64504
▁died	-8.6462
▁win	-8.6465
▁front	-8.64706
▁race	-8.64877
▁given	-8.65026
▁Robert	-8.65128
ba	-8.65204
ga	-8.65594
▁days	-8.65609
▁date	-8.65617
▁situation	-8.65808
▁accident	-8.65946
▁most	-8.66075
▁pregnant	-8.6611
ate	-8.66476
▁Tony	-8.66506
0	-8.66812
espite	-8.6684
▁immediately	-8.66891
per	-8.66892
▁quickly	-8.66909
▁support	-8.66996
▁Danny	-8.67089
▁join	-8.67226
▁result	-8.67505
▁truth	-8.67636
▁dance	-8.67797
▁Lo	-8.6808
W	-8.68171
▁fact	-8.68191
▁second	-8.68253
▁lost	-8.68254
▁James	-8.68388
out	-8.68645
▁boyfriend	-8.68791
▁Chris	-8.68854
E	-8.68904
▁City	-8.68935
▁visits	-8.68983
▁accidentally	-8.69199
▁using	-8.69351
▁Ha	-8.69861
▁great	-8.70284
▁chance	-8.70292
▁look	-8.70411
▁country	-8.70626
▁Eddie	-8.70669
▁career	-8.70775
▁saying	-8.70922
ster	-8.70933
▁student	-8.71394
▁late	-8.7142
▁happy	-8.71578
M	-8.71582
▁following	-8.7181
▁accepts	-8.71823
▁bank	-8.71954
gu	-8.72094
▁Dan	-8.72095
▁revealed	-8.72148
O	-8.72169
▁feels	-8.72249
▁appears	-8.72278
em	-8.72468
▁should	-8.72802
▁year	-8.73305
age	-8.73416
▁did	-8.73549
go	-8.73644
▁unable	-8.7372
do	-8.73768
▁leads	-8.74231
▁four	-8.74275
▁Richard	-8.74606
▁land	-8.74723
▁black	-8.7497
▁seen	-8.75402
▁things	-8.75425
H	-8.7599
▁Jane	-8.76176
▁Jerry	-8.76193
▁enough	-8.76308
ary	-8.76387
▁trouble	-8.76678
▁idea	-8.76997
▁needs	-8.7709
▁upon	-8.77193
▁Ba	-8.77277
▁class	-8.77295
▁British	-8.77652
▁Pa	-8.77732
▁true	-8.77822
▁little	-8.77869
ut	-8.78171
▁jail	-8.78335
▁follows	-8.7836
ick	-8.78376
▁camp	-8.78478
▁letter	-8.785
▁plot	-8.78849
▁loves	-8.78942
▁drive	-8.79158
ot	-8.79219
ak	-8.79244
▁its	-8.79253
▁news	-8.79324
▁-	-8.79412
▁teacher	-8.79456
▁horse	-8.79886
mp	-8.80348
▁act	-8.80512
ow	-8.80577
▁club	-8.80586
ance	-8.80692
ey	-8.80918
op	-8.80964
▁continue	-8.80968
▁side	-8.8115
▁point	-8.81592
▁met	-8.81764
ac	-8.81813
▁crime	-8.81993
▁bed	-8.82083
▁knows	-8.82214
▁Helen	-8.82456
▁themselves	-8.82527
▁large	-8.82581
pa	-8.82622
law	-8.82685
▁There	-8.82705
bo	-8.82747
ted	-8.82824
▁such	-8.82885
ated	-8.83009
▁prove	-8.8319
▁believe	-8.83413
▁big	-8.83525
ko	-8.83598
lin	-8.83737
▁learn	-8.83759
▁Anna	-8.84284
▁persuade	-8.84288
bi	-8.844
▁buy	-8.84434
▁dis	-8.84481
▁seeing	-8.84596
▁person	-8.84604
▁San	-8.8469
ny	-8.84767
▁drug	-8.85015
▁change	-8.85119
▁looking	-8.85133
▁L	-8.8517
▁rich	-8.85225
▁drunk	-8.85357
▁19	-8.85508
wa	-8.85532
han	-8.85599
▁receives	-8.85612
ji	-8.85614
▁building	-8.85911
mer	-8.85937
▁form	-8.86033
▁bus	-8.86331
▁board	-8.86335
▁feelings	-8.86369
▁water	-8.86498
▁orders	-8.86567
▁band	-8.86816
▁Lee	-8.87038
▁better	-8.87108
F	-8.87407
▁loses	-8.8747
▁involved	-8.8762
▁Mi	-8.87849
den	-8.88014
▁earlier	-8.88029
▁used	-8.8809
ham	-8.88167
time	-8.88341
▁thinks	-8.88591
▁Martin	-8.88695
▁near	-8.8874
▁Mc	-8.88907
▁hard	-8.88978
ber	-8.89086
▁successful	-8.8916
ja	-8.89596
▁sell	-8.89715
▁nothing	-8.89746
▁search	-8.89758
▁Larry	-8.89779
no	-8.9
▁manager	-8.90014
▁divorce	-8.90019
▁caught	-8.90123
▁Li	-8.90166
▁Con	-8.90398
▁inside	-8.90478
▁insists	-8.90778
ler	-8.90784
▁Ga	-8.90854
▁uncle	-8.91299
mb	-8.91354
way	-8.91517
▁already	-8.91675
▁confesses	-8.91912
▁present	-8.92002
om	-8.92069
▁street	-8.92136
▁seems	-8.92584
▁hit	-8.92609
side	-8.92646
▁everything	-8.92856
▁further	-8.92859
▁public	-8.92874
▁playing	-8.93175
▁mind	-8.93269
▁Miss	-8.934
▁ride	-8.93501
▁younger	-8.93645
▁Bobby	-8.93684
▁Scott	-8.93879
▁across	-8.9397
▁success	-8.94023
▁giving	-8.94049
▁Me	-8.94147
ca	-8.94161
▁continues	-8.94211
▁arrest	-8.94232
▁causing	-8.9425
▁line	-8.94265
▁Be	-8.94467
▁you	-8.94618
▁role	-8.94658
▁Alice	-8.9468
▁Mark	-8.94685
▁wrong	-8.95258
tra	-8.95379
▁Hu	-8.95546
▁admits	-8.95569
▁King	-8.9564
▁shop	-8.9607
▁restaurant	-8.96072
▁running	-8.96105
▁killing	-8.96268
▁uses	-8.96349
▁dream	-8.96502
▁steal	-8.96551
▁Ray	-8.96606
ap	-8.96619
▁every	-8.96856
▁Matt	-8.9687
▁partner	-8.96933
▁Although	-8.97098
▁newspaper	-8.97098
▁Van	-8.97363
▁lawyer	-8.97512
▁Da	-8.97555
ell	-8.97664
▁Gu	-8.97774
▁need	-8.97797
ally	-8.97908
▁suggests	-8.98064
▁pull	-8.98134
▁known	-8.98162
▁shoots	-8.98193
▁state	-8.98382
▁boat	-8.98604
▁crew	-8.98767
▁Ru	-8.98849
▁always	-8.98973
▁Di	-8.99055
▁open	-8.99096
tu	-8.99171
▁Eventually	-8.99184
▁offer	-8.99185
▁share	-8.99244
▁kills	-8.99301
▁pair	-8.99615
▁attention	-8.99622
▁something	-8.99662
▁self	-8.99799
▁World	-8.99847
har	-9.00022
▁students	-9.00032
▁truck	-9.00086
▁demands	-9.00092
red	-9.00393
▁members	-9.0067
▁Ann	-9.00957
▁Kate	-9.00966
▁pro	-9.01098
▁N	-9.01296
2	-9.01319
▁walks	-9.01522
L	-9.01536
pi	-9.01537
▁entire	-9.01744
▁Tommy	-9.01771
▁may	-9.02043
▁Ar	-9.02095
▁Su	-9.02161
ring	-9.02328
▁beautiful	-9.02396
▁Ja	-9.02417
que	-9.02447
▁agent	-9.02592
▁Vi	-9.02599
▁attend	-9.02699
▁warn	-9.02763
▁German	-9.0286
▁Dave	-9.02873
▁Then	-9.02877
▁Po	-9.02899
▁months	-9.0293
bu	-9.02936
▁moves	-9.03113
▁travel	-9.03114
▁doing	-9.03128
▁Despite	-9.03316
cy	-9.03318
▁United	-9.0349
▁fellow	-9.03495
lu	-9.03531
▁music	-9.03603
▁kiss	-9.03625
▁test	-9.03709
▁farm	-9.03771
The	-9.03813
▁initially	-9.03988
▁claims	-9.04019
▁driver	-9.04133
▁avoid	-9.04153
▁Up	-9.04226
▁middle	-9.04376
▁Jean	-9.04513
▁stage	-9.04583
▁road	-9.04689
▁Ed	-9.05037
▁angry	-9.05044
▁really	-9.05153
▁Kevin	-9.05189
hu	-9.05235
▁future	-9.05266
▁rescue	-9.0534
▁pass	-9.0537
▁Do	-9.05474
▁Ni	-9.05631
▁watch	-9.05644
▁arrange	-9.0585
les	-9.05903
▁brought	-9.0594
ning	-9.05966
▁bad	-9.06267
▁window	-9.06399
▁short	-9.06402
▁That	-9.06414
▁different	-9.06619
▁someone	-9.06658
▁evening	-9.06814
▁pre	-9.06838
▁number	-9.06846
ram	-9.06891
▁drives	-9.06909
▁romantic	-9.07061
▁Ta	-9.07167
▁wins	-9.07508
ial	-9.07564
▁older	-9.07793
▁Anne	-9.07851
▁Before	-9.0799
John	-9.08084
▁Don	-9.08095
▁walk	-9.08226
▁moment	-9.08246
▁ring	-9.08414
N	-9.08499
men	-9.08518
▁control	-9.08711
au	-9.08796
▁why	-9.08915
▁song	-9.0897
▁Susan	-9.09267
▁leader	-9.09479
▁sets	-9.09551
▁crash	-9.09735
gan	-9.09752
▁leading	-9.09767
▁identity	-9.09849
▁destroy	-9.09899
5	-9.0991
▁Mac	-9.09968
▁stolen	-9.10135
▁beat	-9.10199
▁Charles	-9.10346
▁Go	-9.10479
▁Roger	-9.10625
▁Jeff	-9.10651
▁Terry	-9.10858
▁lead	-9.10892
▁States	-9.11034
▁threatens	-9.1121
▁birth	-9.11257
▁Tim	-9.11356
rs	-9.11419
▁condition	-9.11504
▁en	-9.11583
▁causes	-9.11673
▁Ram	-9.117
▁Paris	-9.11703
▁ever	-9.11956
▁hands	-9.11962
▁match	-9.11987
▁series	-9.12224
ies	-9.12252
▁El	-9.12418
▁waiting	-9.12426
▁realize	-9.12486
▁imp	-9.12546
▁Alex	-9.12577
▁follow	-9.12589
▁revenge	-9.12703
▁rather	-9.12706
▁problems	-9.12806
▁towards	-9.12815
▁helps	-9.12829
▁becoming	-9.12864
▁radio	-9.12944
▁friendship	-9.12994
▁Pat	-9.13024
▁sexual	-9.13065
▁although	-9.13186
king	-9.13245
▁French	-9.13429
▁t	-9.13441
▁looks	-9.13482
▁events	-9.13509
▁Sh	-9.13509
▁secretly	-9.13591
▁cover	-9.13663
▁Julie	-9.13683
▁missing	-9.13695
▁full	-9.13707
▁Soon	-9.13767
▁pick	-9.13829
▁Dick	-9.1408
▁law	-9.14095
und	-9.14316
ney	-9.14342
▁childhood	-9.14421
▁agree	-9.14586
▁reveal	-9.14601
▁upset	-9.14686
▁escapes	-9.14709
▁plane	-9.15117
▁flee	-9.15228
ette	-9.15349
▁sneak	-9.15392
mu	-9.15397
▁lover	-9.15485
▁bomb	-9.1552
du	-9.15536
ping	-9.15604
od	-9.15617
▁nearby	-9.15667
▁finding	-9.15802
é	-9.15888
▁evidence	-9.15889
▁estate	-9.15891
▁Rose	-9.16063
▁Captain	-9.16139
▁church	-9.16139
▁we	-9.16139
▁Carl	-9.16246
ating	-9.16266
▁gone	-9.16289
▁accept	-9.16407
oo	-9.16429
ven	-9.16506
▁w	-9.16512
▁happened	-9.16558
▁position	-9.16891
▁Jake	-9.16916
▁others	-9.17016
▁led	-9.17103
ina	-9.17194
▁kids	-9.17225
▁Los	-9.17399
▁social	-9.17676
▁Fred	-9.17744
▁plays	-9.17778
▁No	-9.1785
▁reconcile	-9.17902
▁Angeles	-9.17976
▁Mu	-9.18103
ay	-9.18222
fi	-9.18279
▁H	-9.18301
▁mis	-9.18318
tal	-9.18379
▁white	-9.18464
▁longer	-9.18481
▁Pete	-9.18559
line	-9.18619
we	-9.18643
▁forces	-9.18792
▁mission	-9.18926
▁personal	-9.19073
kin	-9.19134
▁Z	-9.19288
▁marries	-9.19438
▁brothers	-9.19567
▁scheme	-9.19697
gi	-9.19721
▁Grace	-9.19723
who	-9.1973
ging	-9.19797
▁force	-9.20262
▁Ca	-9.20361
▁All	-9.20675
▁contract	-9.20737
▁Sha	-9.20777
▁Once	-9.2089
▁stand	-9.20898
▁English	-9.20999
▁lose	-9.21009
▁Lucy	-9.21273
▁God	-9.2135
▁opens	-9.21374
▁reach	-9.21542
▁coming	-9.21677
▁Car	-9.21837
▁half	-9.22053
▁poor	-9.22102
▁throws	-9.22122
▁suddenly	-9.22388
▁Lu	-9.22445
▁returning	-9.22447
▁protect	-9.22575
▁exchange	-9.22584
▁America	-9.22674
▁crowd	-9.22851
▁check	-9.22854
▁character	-9.22917
▁clear	-9.23017
cing	-9.23093
ag	-9.23139
▁enters	-9.23174
▁island	-9.23237
▁fear	-9.23283
▁rival	-9.23362
▁Amy	-9.23376
▁argument	-9.23386
za	-9.23448
▁Th	-9.23613
▁Sally	-9.2362
▁funeral	-9.23657
▁knowing	-9.23712
▁White	-9.23766
▁Ko	-9.23824
▁sleep	-9.23833
▁conversation	-9.23925
▁enjoy	-9.23925
▁cousin	-9.23925
▁ask	-9.24026
V	-9.24408
ran	-9.24438
▁changes	-9.24478
▁Sir	-9.24965
▁Stan	-9.24967
▁got	-9.2498
▁driving	-9.2501
▁knock	-9.25163
ward	-9.25186
▁We	-9.2519
▁Se	-9.25542
▁gain	-9.25559
▁discovered	-9.25637
ab	-9.25693
▁promises	-9.25711
shi	-9.25716
▁top	-9.25813
1	-9.26029
▁released	-9.26057
3	-9.26073
▁judge	-9.26108
▁ill	-9.26125
▁shown	-9.26263
che	-9.26331
qui	-9.26381
house	-9.26404
▁shoot	-9.26492
ang	-9.26637
▁contact	-9.26652
▁won	-9.26719
ker	-9.26788
▁encounter	-9.26876
▁Walter	-9.26904
▁pretend	-9.27143
▁trial	-9.27231
her	-9.2724
▁Red	-9.27298
▁Linda	-9.27306
ron	-9.27424
rd	-9.27485
▁assistant	-9.27507
▁air	-9.27612
ford	-9.27719
▁post	-9.27726
▁actor	-9.27796
▁lack	-9.27797
ph	-9.27956
▁beach	-9.28031
▁England	-9.28057
▁food	-9.28061
▁birthday	-9.28068
▁sign	-9.28197
▁hears	-9.28212
8	-9.28333
▁nurse	-9.28339
jo	-9.28426
▁member	-9.28452
▁fails	-9.28471
▁manage	-9.28738
▁e	-9.28788
▁behavior	-9.28905
▁interview	-9.28905
▁various	-9.28905
▁prevent	-9.28905
fe	-9.29072
▁Daniel	-9.29109
▁Ne	-9.29122
▁discuss	-9.29132
▁Wa	-9.29191
ze	-9.29236
Ma	-9.29248
▁For	-9.29387
vo	-9.2939
▁remain	-9.29448
ade	-9.29497
ath	-9.29556
▁singer	-9.29569
▁attracted	-9.29595
wood	-9.29837
▁Cha	-9.29911
▁anything	-9.30047
min	-9.30052
▁die	-9.30085
▁Army	-9.30115
▁almost	-9.30206
ack	-9.30227
▁joins	-9.30314
▁jealous	-9.3041
▁m	-9.30419
▁Joan	-9.3042
▁stops	-9.30431
lan	-9.30455
▁catch	-9.30814
off	-9.30819
▁far	-9.30822
rn	-9.30909
▁might	-9.30918
▁drugs	-9.30976
▁Pi	-9.31009
▁park	-9.31149
▁private	-9.31273
nce	-9.3134
gar	-9.31356
▁sp	-9.31414
▁Back	-9.31582
▁consider	-9.3163
▁note	-9.31705
▁winning	-9.31808
▁done	-9.32007
▁gift	-9.32075
▁romance	-9.32075
▁Carol	-9.32078
▁By	-9.32123
▁ground	-9.32168
▁Un	-9.3223
▁kidnap	-9.32351
▁Smith	-9.32369
chi	-9.32448
▁incident	-9.32479
ble	-9.3252
▁government	-9.32663
▁process	-9.32663
▁military	-9.32664
▁flight	-9.32678
▁asking	-9.32683
▁hope	-9.32827
▁Ri	-9.32955
ita	-9.32957
▁don	-9.33005
ill	-9.33086
▁chase	-9.33134
9	-9.3314
ai	-9.33323
▁information	-9.33351
▁announces	-9.33438
▁age	-9.33449
▁Tr	-9.33525
▁performance	-9.33564
▁lot	-9.33566
▁Jones	-9.33585
▁wishes	-9.33643
▁surprise	-9.33849
▁drinking	-9.33882
▁main	-9.33934
▁keeps	-9.34064
▁enter	-9.34112
▁audience	-9.34146
▁else	-9.34147
led	-9.34386
▁v	-9.34433
▁television	-9.34446
▁introduce	-9.34471
day	-9.34737
▁raise	-9.3475
▁director	-9.34791
val	-9.34846
▁reason	-9.3531
▁six	-9.35349
▁detective	-9.35352
ism	-9.35362
tor	-9.35446
▁track	-9.35471
▁Brad	-9.35596
▁Hal	-9.35638
]	-9.35652
▁Christmas	-9.35652
ew	-9.35795
row	-9.35841
▁1	-9.35886
▁art	-9.35905
▁respect	-9.35995
▁France	-9.36146
▁per	-9.36166
ize	-9.36412
▁May	-9.36415
our	-9.36526
▁female	-9.36567
▁yet	-9.36574
▁interested	-9.36838
▁fake	-9.3688
▁reporter	-9.36907
▁coach	-9.36923
ise	-9.36954
▁advice	-9.37181
▁Sarah	-9.3722
▁encounters	-9.37251
▁five	-9.37261
▁early	-9.37293
▁anger	-9.3749
▁operation	-9.3749
▁engagement	-9.37499
▁Ruth	-9.37612
ah	-9.37709
▁Phil	-9.37836
tch	-9.37875
▁say	-9.37989
▁power	-9.38136
ates	-9.38177
▁ch	-9.38317
▁Roy	-9.38368
▁engaged	-9.38527
▁training	-9.38618
▁Andy	-9.38629
▁Rao	-9.38671
▁Du	-9.38735
▁among	-9.38738
▁ball	-9.38791
▁Thomas	-9.38864
▁neighbor	-9.38877
▁Fa	-9.39022
▁wanted	-9.39045
▁journey	-9.39048
par	-9.39112
▁Andrew	-9.39165
▁talking	-9.39432
▁pilot	-9.39453
▁c	-9.39498
▁Pe	-9.39673
believing	-9.39678
ier	-9.39708
▁r	-9.39941
▁defend	-9.39994
ng	-9.40118
▁appear	-9.40136
▁Simon	-9.40162
▁dreams	-9.40279
ence	-9.40296
▁proposes	-9.40339
tro	-9.40382
▁perform	-9.40387
▁me	-9.40462
▁reluctantly	-9.40465
ren	-9.40524
one	-9.40681
▁Ellen	-9.40736
▁onto	-9.40737
▁drink	-9.40802
▁artist	-9.40803
▁claim	-9.40837
ite	-9.40844
▁property	-9.40959
ough	-9.41208
,000	-9.41479
▁hide	-9.41799
van	-9.41852
▁unaware	-9.41914
▁grows	-9.4211
coming	-9.42135
ik	-9.42143
dge	-9.42202
▁decision	-9.42238
4	-9.4235
▁safe	-9.42361
▁fired	-9.42397
▁falling	-9.42462
ana	-9.42488
▁thinking	-9.42522
▁California	-9.42562
▁Finally	-9.42563
▁bond	-9.42564
▁whole	-9.42626
▁Jay	-9.42662
ship	-9.42715
▁speak	-9.42825
▁charge	-9.4283
▁complete	-9.42841
▁blood	-9.42888
▁Barbara	-9.43019
ach	-9.43143
▁Will	-9.43158
ding	-9.4319
▁Eve	-9.43215
▁firm	-9.43215
▁single	-9.43269
▁la	-9.43308
▁determined	-9.43321
com	-9.43331
▁Arthur	-9.43337
ep	-9.43474
▁losing	-9.43544
▁Lisa	-9.43637
▁voice	-9.43654
▁previous	-9.43655
▁cut	-9.43669
well	-9.4371
sha	-9.4375
▁staff	-9.43872
▁those	-9.43876
▁light	-9.4403
field	-9.44032
ide	-9.44037
▁passes	-9.44043
▁Indian	-9.44057
ett	-9.44421
low	-9.44476
▁mine	-9.44504
▁hold	-9.44546
▁Eric	-9.44566
▁area	-9.45115
▁famous	-9.45199
ov	-9.45262
long	-9.45285
▁hopes	-9.45327
over	-9.45516
▁opportunity	-9.45533
▁Bri	-9.45561
▁gr	-9.45587
nd	-9.45666
▁think	-9.45696
▁asked	-9.4574
▁trust	-9.45869
▁Ke	-9.45878
▁gold	-9.45891
ju	-9.45925
▁injured	-9.45948
ten	-9.4599
▁sea	-9.46079
▁seduce	-9.46098
▁rent	-9.46284
▁Raj	-9.46325
▁hired	-9.46357
▁hearing	-9.465
▁came	-9.46505
▁mo	-9.46551
▁dying	-9.46563
▁develops	-9.46694
▁flees	-9.4677
Robert	-9.47074
ped	-9.47119
ock	-9.47124
▁Del	-9.47375
▁criminal	-9.47653
▁Big	-9.47829
▁V	-9.47843
ned	-9.47859
▁key	-9.4789
▁suspicious	-9.47906
▁medical	-9.47906
rushes	-9.47913
▁realise	-9.47935
die	-9.47967
▁Kelly	-9.47976
▁Annie	-9.48002
act	-9.48079
tan	-9.48104
▁victim	-9.4825
▁William	-9.48341
▁Dar	-9.48369
mate	-9.48406
▁fallen	-9.48421
▁Rick	-9.48449
rt	-9.48507
▁remains	-9.48554
▁Chicago	-9.48594
▁President	-9.48594
▁ho	-9.48602
▁hoping	-9.48609
▁ultimately	-9.48617
▁weeks	-9.48886
▁million	-9.48959
▁shocked	-9.48996
pt	-9.49158
▁studio	-9.49288
▁hurt	-9.49292
▁anyone	-9.49319
▁table	-9.49332
▁played	-9.4935
cent	-9.49366
▁happens	-9.49375
ple	-9.49383
▁recently	-9.49388
let	-9.49431
ree	-9.4948
ip	-9.49587
▁Maria	-9.49599
▁community	-9.49636
▁fortune	-9.49637
▁grandfather	-9.49637
▁increasing	-9.49699
▁mysterious	-9.49986
catches	-9.50191
kar	-9.50282
▁arrival	-9.50337
▁message	-9.50347
▁cross	-9.50438
▁financial	-9.50471
▁Raja	-9.50559
▁Brian	-9.50627
▁collect	-9.50631
▁steals	-9.50647
▁tree	-9.50703
▁mansion	-9.50718
of	-9.50781
▁—	-9.5079
io	-9.50817
▁Louis	-9.51009
▁rock	-9.51024
▁battle	-9.51042
con	-9.51224
▁returned	-9.5126
▁figure	-9.51397
▁happily	-9.51397
▁Maggie	-9.51398
▁notices	-9.51445
▁Lady	-9.51462
thi	-9.51488
▁Joseph	-9.51508
az	-9.51615
ice	-9.51669
▁writer	-9.51737
▁blackmail	-9.51753
ug	-9.51816
▁West	-9.51962
▁Hav	-9.52054
▁clothes	-9.5212
▁record	-9.52189
▁revealing	-9.52309
▁Wil	-9.52486
▁card	-9.52504
▁course	-9.52569
▁dress	-9.52759
▁football	-9.5283
mar	-9.52846
▁experience	-9.52849
▁cash	-9.52879
▁host	-9.5292
▁thought	-9.52977
if	-9.53018
ev	-9.53062
▁report	-9.5307
▁shock	-9.53132
▁box	-9.53153
▁project	-9.53189
▁society	-9.53189
▁river	-9.5319
▁actress	-9.53198
▁Rocky	-9.53285
▁officers	-9.53543
▁desire	-9.53552
▁nearly	-9.53602
▁release	-9.53618
▁hiding	-9.5364
▁retrieve	-9.53751
▁Both	-9.53777
▁these	-9.53855
▁hidden	-9.53917
▁alive	-9.53926
▁Jennifer	-9.54081
▁ways	-9.54171
▁guard	-9.54239
▁blind	-9.5428
▁Brown	-9.54281
▁field	-9.54465
▁abandon	-9.54594
▁player	-9.54629
▁Emily	-9.5465
fa	-9.54686
▁TV	-9.54696
00	-9.54792
▁sl	-9.54807
os	-9.54958
▁Am	-9.54967
▁popular	-9.54992
▁Albert	-9.5503
ino	-9.55187
▁write	-9.5525
▁prostitute	-9.55383
▁secretary	-9.55428
▁abandoned	-9.55436
my	-9.55723
▁thus	-9.55779
uck	-9.55799
▁broken	-9.55851
▁learning	-9.55931
▁Stella	-9.5614
▁service	-9.56177
▁sit	-9.56209
▁efforts	-9.56329
ub	-9.56355
▁wish	-9.56415
▁rejects	-9.56461
▁Black	-9.56504
ious	-9.56652
▁king	-9.5667
ight	-9.56843
▁bag	-9.56913
▁strong	-9.57031
tha	-9.5715
▁characters	-9.57156
▁Boy	-9.57191
▁Chuck	-9.57267
▁Now	-9.57387
▁read	-9.57516
▁ma	-9.57557
▁gave	-9.57628
▁Hollywood	-9.5763
nie	-9.57707
▁held	-9.57731
▁Lily	-9.57736
▁Ted	-9.57791
▁lies	-9.57796
▁cause	-9.57821
▁aunt	-9.57855
▁leg	-9.57947
▁cast	-9.57987
▁Howard	-9.58034
▁reache	-9.58065
▁thing	-9.58231
▁Gar	-9.58357
▁General	-9.58388
▁killer	-9.58425
▁security	-9.58441
▁camera	-9.58447
▁bill	-9.58463
▁wakes	-9.585
▁build	-9.58517
▁kind	-9.5854
▁Stephen	-9.58547
for	-9.58577
▁Ab	-9.58597
▁Though	-9.58778
▁3	-9.58949
▁South	-9.59044
▁travels	-9.59052
▁heads	-9.59054
▁Two	-9.59153
▁Judy	-9.59167
▁Col	-9.59292
▁Victor	-9.59334
▁ready	-9.59364
▁talks	-9.59377
▁Elizabeth	-9.59681
ane	-9.59895
▁priest	-9.59921
▁saved	-9.59939
▁sense	-9.60028
▁struggle	-9.60118
▁visiting	-9.60221
▁mention	-9.60311
▁saving	-9.60315
▁hours	-9.60328
Y	-9.60329
ung	-9.60449
▁fly	-9.60476
▁problem	-9.6053
▁press	-9.60574
▁Bud	-9.60674
▁Sp	-9.60682
▁captain	-9.60697
▁special	-9.60697
art	-9.60704
▁flat	-9.60822
nu	-9.60851
▁floor	-9.61088
▁fix	-9.61088
▁grandmother	-9.61089
▁Father	-9.61116
▁robbery	-9.61189
▁Adam	-9.61276
▁army	-9.61278
▁picture	-9.61334
▁ago	-9.61345
▁singing	-9.61417
▁ending	-9.61493
▁shooting	-9.61587
▁dealer	-9.61607
▁inter	-9.617
▁machine	-9.61874
▁health	-9.61888
▁human	-9.61913
▁Karen	-9.61933
▁plant	-9.61936
▁explain	-9.61947
▁Cor	-9.62087
ure	-9.62171
▁painting	-9.62222
▁Bur	-9.62261
▁neighborhood	-9.62275
▁touch	-9.62302
▁Carter	-9.62325
▁Yu	-9.62347
▁committed	-9.62382
▁apologizes	-9.62386
▁drunken	-9.62413
▁assigned	-9.62424
qua	-9.62425
▁guilty	-9.62452
▁murdered	-9.62453
▁political	-9.62666
▁Duke	-9.62701
▁mistake	-9.62824
ized	-9.62917
▁Hi	-9.63038
▁angrily	-9.63064
▁responsible	-9.63064
ator	-9.63103
▁Angel	-9.6321
▁thrown	-9.63222
▁realiz	-9.63335
▁comp	-9.63428
▁furious	-9.63467
▁president	-9.63468
▁Sal	-9.63478
▁moved	-9.63544
▁producer	-9.63595
▁adult	-9.63861
▁investigate	-9.63866
▁East	-9.63881
▁whe	-9.63962
▁elderly	-9.63995
▁deliver	-9.63996
▁Lin	-9.64095
▁accuse	-9.64182
▁watching	-9.64188
▁decided	-9.6422
▁attorney	-9.64269
▁settle	-9.64322
▁Rachel	-9.64332
▁remind	-9.64482
ue	-9.64499
▁witness	-9.64545
▁rob	-9.64645
▁airport	-9.64683
▁ensues	-9.64701
▁Laura	-9.64704
▁du	-9.64724
▁photograph	-9.64778
▁selling	-9.64789
▁question	-9.64843
▁turned	-9.64858
ari	-9.64882
▁soldiers	-9.64912
▁summer	-9.65088
▁Diana	-9.65097
▁loss	-9.65102
tin	-9.6515
ong	-9.65261
ika	-9.65365
▁Edward	-9.65379
▁kick	-9.6549
▁Cr	-9.65676
▁struggles	-9.65689
▁hires	-9.65729
▁captured	-9.65768
mon	-9.65784
▁wall	-9.65891
▁Lord	-9.65924
▁Krishna	-9.65976
gen	-9.65995
▁intends	-9.66036
▁Doug	-9.66043
▁chief	-9.6631
▁bedroom	-9.66322
▁Bra	-9.66359
▁begs	-9.66426
don	-9.66598
▁innocent	-9.66723
▁En	-9.66764
▁Betty	-9.66822
ex	-9.66882
head	-9.66966
ani	-9.67053
▁wait	-9.67121
▁important	-9.67138
▁title	-9.67139
▁Molly	-9.67157
▁van	-9.67177
▁planning	-9.67202
▁week	-9.6721
ville	-9.6723
itt	-9.67306
all	-9.67349
▁Pro	-9.67441
▁major	-9.67533
▁speech	-9.67555
▁ceremony	-9.67555
▁sure	-9.67589
▁Ralph	-9.67675
▁Jr	-9.67736
▁quit	-9.67898
▁nightclub	-9.67973
▁Japanese	-9.67973
▁moving	-9.67973
▁approaches	-9.68029
▁writing	-9.68087
zz	-9.6809
▁li	-9.68105
▁cr	-9.68107
▁Day	-9.68184
▁walking	-9.68281
ek	-9.6837
▁Dean	-9.68382
▁II	-9.68503
like	-9.6862
▁Alan	-9.68745
▁Te	-9.68777
▁took	-9.6879
▁servant	-9.68815
▁often	-9.68835
▁affection	-9.68842
▁cold	-9.68856
war	-9.68875
▁dating	-9.68878
▁request	-9.68948
▁eye	-9.68954
back	-9.69018
▁desperate	-9.69022
car	-9.69065
▁argue	-9.69239
▁ruin	-9.69247
ena	-9.69329
▁watches	-9.69459
▁less	-9.69634
▁assault	-9.69664
▁Morgan	-9.69674
▁Far	-9.6969
▁aware	-9.69698
▁grab	-9.69727
▁command	-9.69816
▁suspect	-9.6984
▁hits	-9.69915
▁bear	-9.6996
▁Just	-9.69966
▁comfort	-9.70067
An	-9.70085
▁Kumar	-9.70101
▁Ti	-9.70136
▁Claire	-9.70196
▁Par	-9.70199
▁piece	-9.70227
yo	-9.70306
.[2]	-9.70318
▁deep	-9.70371
▁Ya	-9.70411
▁promise	-9.70416
▁pack	-9.70495
▁seem	-9.70513
▁factory	-9.70536
▁calling	-9.70554
vin	-9.70596
▁seeks	-9.70619
▁hear	-9.70663
ou	-9.70673
j	-9.70795
▁cell	-9.70925
▁workers	-9.70944
▁FBI	-9.70952
▁Ernest	-9.70952
▁Cooper	-9.70952
▁Julia	-9.70953
▁Police	-9.70956
▁Connie	-9.70968
▁sick	-9.7103
▁male	-9.71053
▁Harold	-9.71076
lam	-9.71332
▁bet	-9.71378
▁reputation	-9.71385
▁hair	-9.71387
▁Catherine	-9.71467
▁capture	-9.71525
▁Fi	-9.71627
▁understand	-9.71872
ries	-9.71875
▁successfully	-9.71891
aged	-9.71906
▁picks	-9.7218
▁model	-9.72263
▁18	-9.7227
▁fighting	-9.72289
▁went	-9.723
▁written	-9.72309
▁provide	-9.72487
ical	-9.72677
▁surprised	-9.72693
▁commit	-9.72696
▁Singh	-9.72702
▁based	-9.7274
▁Chi	-9.72745
▁Bu	-9.72822
▁Wilson	-9.73178
▁beginning	-9.73179
▁feel	-9.73265
▁arm	-9.7328
▁Bar	-9.73435
▁followed	-9.73456
▁ten	-9.73486
▁results	-9.73513
▁loved	-9.73559
▁choice	-9.73578
▁custody	-9.73578
▁stealing	-9.73607
lock	-9.73628
James	-9.73637
▁Not	-9.73684
▁Norman	-9.73713
ctor	-9.73714
▁Stanley	-9.73718
▁reunited	-9.73791
▁Cl	-9.73835
▁debt	-9.73906
▁guests	-9.7393
▁finish	-9.73932
▁throw	-9.73999
▁Marcus	-9.74041
▁treatment	-9.74045
▁born	-9.74142
▁professional	-9.74196
▁Margaret	-9.74203
▁North	-9.74226
▁widow	-9.74299
▁cl	-9.74319
▁Ali	-9.74469
▁Radha	-9.7449
▁especially	-9.74527
▁step	-9.74605
▁notice	-9.74649
▁reluctant	-9.74701
▁word	-9.7483
▁matter	-9.74831
▁agents	-9.74904
▁opening	-9.74911
▁dancing	-9.74917
▁regard	-9.74918
▁seven	-9.74926
▁sight	-9.74954
▁trio	-9.74967
▁convinced	-9.74981
▁attacks	-9.74994
▁climb	-9.75108
▁See	-9.75236
▁failed	-9.75248
ott	-9.753
▁investigation	-9.75368
▁professor	-9.75368
▁unconscious	-9.75377
bel	-9.75388
▁lady	-9.75399
▁sub	-9.75401
▁worker	-9.7542
▁tape	-9.75447
▁And	-9.75514
▁sleeping	-9.75521
▁event	-9.75586
▁holding	-9.75774
▁writes	-9.75801
▁gambling	-9.7582
▁gay	-9.75827
bra	-9.75842
▁desert	-9.75854
▁showing	-9.75893
▁theater	-9.75909
▁Miller	-9.75976
▁peace	-9.76221
▁pressure	-9.76299
▁within	-9.7636
▁rape	-9.76366
▁tried	-9.76374
▁Gil	-9.76417
▁Over	-9.76418
▁feeling	-9.7642
▁Nazi	-9.76456
▁dad	-9.76489
▁guilt	-9.7652
▁actions	-9.76579
▁adopt	-9.76712
▁families	-9.76731
▁general	-9.76731
▁struggling	-9.76733
▁maid	-9.76772
▁bit	-9.76799
▁Ken	-9.76824
▁Philip	-9.76837
▁encourage	-9.76865
▁receive	-9.76881
▁Evan	-9.76888
▁suspects	-9.77009
▁breaking	-9.77129
▁obtain	-9.7719
▁possible	-9.77272
ban	-9.77281
▁draw	-9.77312
▁charges	-9.77313
▁saves	-9.77333
fully	-9.77419
more	-9.77438
▁completely	-9.77496
played	-9.77547
▁Sue	-9.77569
▁prize	-9.77652
▁patient	-9.77667
▁Gloria	-9.77699
▁Har	-9.77702
▁mid	-9.77712
U	-9.77739
▁witnesses	-9.77784
▁Marie	-9.77828
▁marrying	-9.77951
▁fit	-9.78013
▁earn	-9.78043
▁recognizes	-9.78048
▁replies	-9.78114
▁video	-9.78114
▁talent	-9.78158
▁June	-9.78246
pper	-9.78253
▁overhears	-9.78257
La	-9.78382
▁means	-9.7856
▁aircraft	-9.78579
▁ghost	-9.78579
▁memory	-9.78579
▁purchase	-9.78579
▁wild	-9.78579
▁worse	-9.78579
▁pool	-9.7858
▁Gordon	-9.78597
▁novel	-9.78601
▁appearance	-9.78601
Richard	-9.78684
▁base	-9.78723
▁India	-9.78791
▁original	-9.78842
▁Johnson	-9.78888
▁buys	-9.79035
▁Unfortunately	-9.79046
▁celebrate	-9.79046
▁vacation	-9.79046
▁questions	-9.79068
▁Si	-9.7922
.[1]	-9.79314
▁2	-9.79318
▁spy	-9.79395
▁Chinese	-9.79516
▁Earl	-9.79554
▁Ju	-9.79624
▁separate	-9.7969
▁Hank	-9.79707
▁emotional	-9.79809
▁pen	-9.79972
▁Mexico	-9.79987
▁lifestyle	-9.80012
▁Russian	-9.80036
ueen	-9.80061
▁huge	-9.80071
▁Nancy	-9.80072
▁remember	-9.80105
▁Jan	-9.80135
▁apparently	-9.80138
▁Va	-9.80167
Mar	-9.80177
▁j	-9.80205
▁Greg	-9.80224
▁mob	-9.80322
▁mental	-9.80343
▁Peggy	-9.80461
▁extreme	-9.80461
▁location	-9.80461
▁magazine	-9.80461
▁illegal	-9.80462
rie	-9.80462
▁Chief	-9.80466
▁states	-9.80517
▁Min	-9.80542
▁cabin	-9.80543
▁answer	-9.80587
▁Bruce	-9.80623
▁Some	-9.80643
▁wounded	-9.80822
▁campaign	-9.80938
▁US	-9.8114
▁lying	-9.81143
▁Ch	-9.81144
att	-9.81163
yan	-9.81205
ray	-9.81213
▁pursue	-9.81273
▁Mal	-9.81371
ities	-9.81441
▁Pu	-9.81458
▁words	-9.8151
▁crush	-9.81544
▁Rob	-9.81555
▁gas	-9.81558
▁official	-9.8168
▁Tan	-9.81714
▁Sean	-9.81737
▁willing	-9.81752
▁teenage	-9.81792
▁account	-9.81872
▁attacked	-9.81891
▁proposal	-9.81897
▁loan	-9.81902
▁fate	-9.81906
▁action	-9.81912
▁Ryan	-9.81917
▁Ki	-9.81919
▁Oliver	-9.81956
▁Dev	-9.82133
▁spending	-9.82186
▁grow	-9.8227
light	-9.8231
▁rush	-9.82326
▁poison	-9.8238
▁holds	-9.82419
▁Jonathan	-9.82491
▁storm	-9.82582
▁soldier	-9.82589
▁Gra	-9.82638
cho	-9.82676
▁changed	-9.82679
work	-9.82778
▁Han	-9.82832
▁claiming	-9.82843
▁knowledge	-9.82865
▁disguise	-9.83056
▁effort	-9.83086
▁spot	-9.83107
win	-9.83121
▁Sc	-9.83346
▁embrace	-9.83353
▁enlist	-9.83359
▁Young	-9.83363
▁planned	-9.83403
port	-9.83558
▁newly	-9.83658
▁times	-9.8374
▁hero	-9.83766
▁blow	-9.83791
▁wander	-9.83844
▁Mor	-9.83847
▁Martha	-9.83869
▁Stu	-9.84012
▁helping	-9.84053
Jo	-9.84062
▁round	-9.84063
▁businessman	-9.84196
▁Arjun	-9.84336
▁became	-9.84336
▁empty	-9.84336
▁dancer	-9.84414
▁th	-9.84786
▁suffers	-9.84791
yn	-9.84818
▁favor	-9.84823
▁Gwen	-9.84832
▁Bi	-9.84929
ture	-9.84996
▁nature	-9.85033
▁fun	-9.85304
▁kidnapped	-9.85342
▁saw	-9.85393
▁aid	-9.85425
▁teenager	-9.85587
▁previously	-9.85657
▁produce	-9.85665
▁caused	-9.85719
▁Ku	-9.8583
▁attractive	-9.85842
▁spirit	-9.8585
▁Vincent	-9.85911
▁panic	-9.85971
▁throughout	-9.85987
▁declares	-9.8601
class	-9.86064
▁eyes	-9.86224
▁forgive	-9.86327
▁Colonel	-9.86331
▁Washington	-9.86331
▁Tu	-9.86334
▁alcoholic	-9.86361
lea	-9.86394
▁African	-9.86439
ose	-9.86518
.[3]	-9.86587
▁Val	-9.86606
town	-9.86609
▁prepares	-9.86623
▁eat	-9.86785
▁Inspector	-9.86836
▁recruit	-9.86836
▁executive	-9.86839
▁dark	-9.86841
▁honor	-9.86841
▁cook	-9.86845
▁guards	-9.86867
▁Pan	-9.86907
▁resist	-9.87037
▁knocks	-9.87059
▁quite	-9.87093
▁Beth	-9.87105
▁gather	-9.87227
ash	-9.87292
▁hang	-9.87318
▁Williams	-9.87339
▁current	-9.87344
▁Francis	-9.87373
▁blame	-9.87458
▁Ravi	-9.87586
▁kisses	-9.87613
▁wealth	-9.87643
▁low	-9.87785
▁program	-9.87854
▁Lou	-9.87887
▁fan	-9.87895
ile	-9.87906
ably	-9.87923
▁Fu	-9.87934
alizing	-9.88069
▁crashes	-9.88109
▁serious	-9.8815
▁gangster	-9.88358
▁treat	-9.88358
▁Jewish	-9.88367
▁Taylor	-9.88367
▁concert	-9.88367
▁repair	-9.88367
▁double	-9.88367
▁kept	-9.88367
▁Blake	-9.88368
▁Oscar	-9.88369
▁failure	-9.88373
▁seek	-9.884
▁Instead	-9.88409
▁trap	-9.88416
▁constantly	-9.88474
▁reality	-9.88484
▁Leo	-9.8849
▁letters	-9.88568
▁Frankie	-9.88574
▁sin	-9.88574
ition	-9.88616
▁Bal	-9.8866
▁Em	-9.88669
▁Karl	-9.88876
▁third	-9.88882
▁remove	-9.88893
rate	-9.88941
▁Jenny	-9.88956
▁stays	-9.88961
mal	-9.88982
istic	-9.89016
▁Luke	-9.89116
▁Cas	-9.89121
▁Sara	-9.89205
nder	-9.89293
▁Mari	-9.89309
lly	-9.89334
▁seemingly	-9.89402
ory	-9.89407
▁Fl	-9.89428
▁said	-9.89428
▁legal	-9.89497
▁effect	-9.89503
Paul	-9.8964
▁attends	-9.89696
▁Jason	-9.89714
▁drops	-9.8977
▁toward	-9.89814
▁prompt	-9.89814
▁raid	-9.89924
▁authorities	-9.89925
▁Willie	-9.90006
▁wind	-9.90032
▁Mil	-9.90045
og	-9.90146
▁hides	-9.90148
▁brief	-9.90228
▁amount	-9.90445
▁Professor	-9.90445
▁paid	-9.90446
▁youth	-9.90446
▁Can	-9.90497
▁4	-9.9056
Michael	-9.90669
▁serve	-9.90681
▁tour	-9.90736
▁difficult	-9.90745
rk	-9.9091
▁paper	-9.90985
▁rid	-9.90991
▁Kay	-9.91007
▁Ivan	-9.91028
▁wearing	-9.91068
nch	-9.91116
▁arms	-9.91134
▁engineer	-9.91213
▁red	-9.91286
▁contest	-9.91475
▁orphan	-9.91484
▁attitude	-9.915
▁potential	-9.915
▁similar	-9.915
▁drown	-9.91501
▁hostage	-9.91528
▁attending	-9.91585
▁sold	-9.91663
▁pitch	-9.91712
▁Angela	-9.9173
▁cat	-9.91781
▁flying	-9.91842
▁Soviet	-9.92032
▁competition	-9.92032
▁knew	-9.92032
▁resolve	-9.92032
▁stories	-9.92032
▁stock	-9.92033
▁shut	-9.92041
▁advances	-9.92107
▁advises	-9.92116
▁Marty	-9.92145
▁Hall	-9.9219
py	-9.92206
David	-9.92272
▁listen	-9.92524
▁hot	-9.92552
▁villagers	-9.92648
tz	-9.92727
▁wear	-9.92728
▁passengers	-9.92853
▁supposed	-9.92887
▁express	-9.92917
ible	-9.93021
▁allowed	-9.93037
Na	-9.93072
▁confirm	-9.93104
▁shelter	-9.93107
▁Com	-9.93116
▁photo	-9.93193
pro	-9.93222
▁ca	-9.93455
▁sa	-9.93565
▁assumes	-9.9359
▁presence	-9.93646
▁trade	-9.93701
▁normal	-9.93783
izing	-9.93799
cha	-9.93828
▁grown	-9.93843
Al	-9.93865
▁Dennis	-9.9387
ever	-9.93945
▁Emma	-9.93976
▁Kit	-9.9402
▁Sch	-9.94038
ave	-9.94092
▁Ross	-9.94135
ez	-9.94161
▁Hill	-9.94168
▁resort	-9.94189
▁target	-9.94189
▁fast	-9.9421
▁didn	-9.94233
▁Lewis	-9.94323
▁Polly	-9.94358
▁perfect	-9.94367
▁center	-9.94385
▁chases	-9.94411
▁hall	-9.94501
ily	-9.94508
▁reading	-9.9455
lie	-9.94563
hop	-9.94628
▁straight	-9.94735
▁media	-9.94738
▁invited	-9.94753
▁Francisco	-9.94765
gy	-9.94798
▁extra	-9.94803
▁remaining	-9.94848
▁drop	-9.94893
▁Matthew	-9.94894
▁expresse	-9.94925
fu	-9.94941
▁boarding	-9.94955
▁fires	-9.9498
▁players	-9.94993
▁Ver	-9.9501
▁confess	-9.95026
▁Cal	-9.95107
▁pe	-9.95151
▁staying	-9.95155
▁Tri	-9.95201
▁Gary	-9.95219
▁Lawrence	-9.95284
▁practice	-9.95284
▁task	-9.95285
▁meantime	-9.95293
▁dangerous	-9.95306
▁Mitch	-9.95309
▁background	-9.9531
▁history	-9.95398
▁Rita	-9.95408
▁wound	-9.95418
room	-9.95443
▁Vic	-9.95509
▁spots	-9.95587
▁heard	-9.95639
bar	-9.95762
▁Ollie	-9.95837
▁Vijay	-9.95837
▁Davis	-9.9584
▁vote	-9.95871
▁assure	-9.95883
ini	-9.95978
▁violent	-9.96175
hen	-9.96184
▁reads	-9.962
▁points	-9.96248
▁address	-9.96278
▁welcome	-9.96392
▁Italian	-9.96393
▁Since	-9.96402
▁befriends	-9.96404
▁proceeds	-9.96414
▁sitting	-9.96425
▁Mason	-9.96641
▁client	-9.96643
▁Air	-9.96687
▁ice	-9.96726
▁acting	-9.9675
▁Or	-9.96838
▁Follow	-9.96951
▁insurance	-9.96951
ati	-9.97002
▁luck	-9.97049
▁searching	-9.97114
down	-9.97119
▁Sandy	-9.9715
▁develop	-9.97324
▁Nor	-9.97336
▁Pre	-9.97352
pu	-9.97383
▁Ber	-9.97415
ky	-9.97448
▁cop	-9.97453
▁object	-9.97511
▁conflict	-9.97513
▁either	-9.97513
▁motel	-9.97513
▁bathroom	-9.97515
▁my	-9.97528
vel	-9.97541
▁Park	-9.97558
▁Cam	-9.97563
run	-9.97579
▁beaten	-9.97676
▁guy	-9.9779
which	-9.97815
▁Mer	-9.97898
▁passing	-9.97972
▁Nicholas	-9.98078
▁Kitty	-9.98108
▁slowly	-9.98167
▁path	-9.98167
▁Jill	-9.982
Sa	-9.98241
▁cost	-9.98244
Le	-9.9825
▁rescued	-9.9826
▁Bl	-9.98348
▁Tre	-9.98365
▁contain	-9.98372
▁ticket	-9.98373
▁tracks	-9.98419
▁fail	-9.98464
▁Lar	-9.98483
▁badly	-9.98622
▁roof	-9.98643
▁Graham	-9.98663
▁bridge	-9.98668
▁classmate	-9.98672
▁Janet	-9.98746
▁Anand	-9.98798
▁include	-9.99076
▁Bas	-9.99164
No	-9.9917
▁carrying	-9.99171
▁Kid	-9.99217
▁happiness	-9.99217
▁graduate	-9.99218
▁thief	-9.99218
▁casino	-9.99218
▁Sonny	-9.99229
▁offered	-9.99233
▁department	-9.99237
▁Buddy	-9.99249
▁spent	-9.99264
▁Amar	-9.99288
hood	-9.993
wan	-9.99334
▁Fr	-9.99348
▁clean	-9.99369
▁defeat	-9.9937
▁suit	-9.99372
raj	-9.99424
▁Roman	-9.99482
▁suffering	-9.9951
▁flashback	-9.99562
▁employee	-9.99567
▁steps	-9.99617
Mo	-9.99635
▁closer	-9.99754
▁influence	-9.99792
▁Major	-9.99792
▁Mad	-9.99836
▁safety	-9.99843
▁repeatedly	-9.99862
▁Pri	-9.99934
▁o	-9.99948
bert	-9.99985
pen	-10.0002
pre	-10.0013
▁strike	-10.0016
▁declines	-10.0027
ecause	-10.0035
▁revolve	-10.0037
▁scandal	-10.0037
▁secure	-10.0037
▁rise	-10.0042
▁dive	-10.0057
▁Parker	-10.0061
▁engine	-10.0069
▁strange	-10.0073
▁policeman	-10.0079
▁credit	-10.0079
▁impress	-10.0085
▁strip	-10.0094
▁bottle	-10.0095
▁bride	-10.0095
▁goodbye	-10.0095
ara	-10.0095
▁mistress	-10.0096
▁chair	-10.0096
▁Randy	-10.0106
▁unexpectedly	-10.0109
rant	-10.0116
▁Louise	-10.0131
▁demand	-10.0132
▁Jackie	-10.0139
▁Wood	-10.0152
▁circus	-10.0154
▁lunch	-10.0154
▁Jesus	-10.0154
▁Owen	-10.0154
▁Navy	-10.0156
▁market	-10.0156
▁roommate	-10.0161
udi	-10.0164
▁count	-10.0174
▁Gus	-10.0174
▁20	-10.0175
▁confrontation	-10.0175
▁interrupted	-10.0183
▁Prince	-10.0194
▁placed	-10.0194
▁system	-10.0212
▁honest	-10.0212
▁mountain	-10.0212
▁Vegas	-10.0213
▁unhappy	-10.0213
▁baseball	-10.0213
cut	-10.0217
▁Harris	-10.0217
▁Ned	-10.0228
▁Beau	-10.0238
▁afraid	-10.0244
▁shortly	-10.0269
▁Charlotte	-10.0272
▁risk	-10.0275
▁Jesse	-10.0283
▁Stone	-10.0286
iva	-10.0293
▁Khan	-10.0301
▁expose	-10.0301
maker	-10.031
ified	-10.0316
▁instruct	-10.0324
▁issues	-10.0329
▁Fo	-10.0331
▁Monica	-10.0331
▁meanwhile	-10.0331
▁accused	-10.0333
▁duty	-10.0335
hol	-10.0337
▁Julian	-10.0344
▁experiences	-10.0345
ude	-10.0354
▁sentenced	-10.0359
ye	-10.0359
▁Anthony	-10.0362
ery	-10.0366
▁jumps	-10.0369
▁simply	-10.0391
▁household	-10.0391
▁Aunt	-10.0391
▁Gi	-10.0405
wi	-10.0405
▁shares	-10.041
▁received	-10.043
▁mad	-10.0437
▁danger	-10.0449
▁veteran	-10.0451
▁border	-10.0451
▁possession	-10.0454
▁Jackson	-10.0487
▁physical	-10.049
▁threatening	-10.049
▁responds	-10.0496
▁confronted	-10.0497
▁University	-10.0512
del	-10.0518
▁thanks	-10.0532
▁grave	-10.0535
▁Grand	-10.0538
▁10	-10.0546
▁sound	-10.0549
▁tears	-10.055
cle	-10.0553
▁fiancé	-10.0557
▁traveling	-10.0565
▁forget	-10.0567
▁performing	-10.0571
▁charm	-10.0572
▁period	-10.0573
▁research	-10.0573
▁Island	-10.0573
▁House	-10.0575
▁Teddy	-10.0576
▁Mother	-10.0583
▁site	-10.0592
▁Christopher	-10.0594
▁Toni	-10.0604
▁se	-10.0614
▁involv	-10.0621
▁view	-10.0631
▁trans	-10.0632
▁warning	-10.0634
▁worried	-10.0634
▁garden	-10.0634
▁asleep	-10.0634
▁Katie	-10.0639
▁Shortly	-10.0639
Li	-10.0647
▁Wi	-10.0648
▁design	-10.0654
▁Raju	-10.0655
cher	-10.066
eg	-10.0673
found	-10.0675
▁Chu	-10.0676
▁urges	-10.0678
▁terms	-10.0682
▁destroyed	-10.0683
▁9	-10.0684
▁Europe	-10.0689
▁stands	-10.0691
▁activities	-10.0696
▁eccentric	-10.0696
▁bribe	-10.0696
▁Jacob	-10.0696
▁Nora	-10.0698
▁happen	-10.0699
▁Caroline	-10.0703
▁Long	-10.0705
board	-10.0707
▁Mickey	-10.0707
▁soul	-10.0711
▁rejected	-10.0716
▁foot	-10.0728
▁Buck	-10.0745
▁ski	-10.0745
▁except	-10.0752
▁holiday	-10.0758
▁fulfill	-10.0758
▁weekend	-10.0759
▁cheer	-10.0759
▁particularly	-10.0768
▁putting	-10.0774
▁learned	-10.0778
aw	-10.079
▁fights	-10.0791
▁Ricky	-10.0796
Jack	-10.0806
▁standing	-10.0814
some	-10.0816
Ra	-10.0819
De	-10.0819
Mi	-10.082
▁senior	-10.0821
▁clerk	-10.0821
▁connection	-10.0824
▁stopped	-10.0825
▁reward	-10.0832
▁loving	-10.0836
▁ban	-10.0846
▁arranged	-10.0853
▁Even	-10.0872
wal	-10.0872
▁Per	-10.0879
▁block	-10.0887
▁harm	-10.0887
▁subsequently	-10.0894
▁Za	-10.0906
▁jump	-10.0907
▁lands	-10.0909
ties	-10.0918
▁Chan	-10.0938
▁impressed	-10.094
▁patients	-10.0945
▁accompany	-10.0947
▁beauty	-10.0947
▁score	-10.0947
▁High	-10.0947
vy	-10.095
▁Ham	-10.0951
▁mistaken	-10.0956
▁guest	-10.096
▁rescues	-10.0969
▁pain	-10.0982
▁Ye	-10.0988
rel	-10.0998
▁April	-10.101
▁Nikki	-10.101
▁editor	-10.101
▁wreck	-10.101
▁bought	-10.101
▁flies	-10.1011
▁Clara	-10.1011
▁rain	-10.1012
▁fiancée	-10.1033
▁add	-10.104
nan	-10.1045
▁streets	-10.1052
▁Mae	-10.1052
▁quiet	-10.1053
▁create	-10.1062
▁Grant	-10.1071
▁Benjamin	-10.1075
▁escort	-10.1075
▁usual	-10.1075
▁speed	-10.1075
▁waitress	-10.1075
▁odd	-10.1075
▁frustrated	-10.1078
▁dressed	-10.1085
▁suggest	-10.1091
▁strikes	-10.1098
▁teach	-10.1099
▁dump	-10.1103
▁concerned	-10.1108
gle	-10.1112
▁Whit	-10.1113
aring	-10.1124
▁tricks	-10.1126
▁Clouseau	-10.1139
▁education	-10.1139
▁purpose	-10.1139
▁denies	-10.1139
▁Uncle	-10.114
▁Wayne	-10.1141
▁Diane	-10.1141
▁production	-10.1142
▁rage	-10.1147
▁owned	-10.1148
▁oil	-10.1149
▁setting	-10.1154
▁Robin	-10.1156
▁assist	-10.1166
▁direct	-10.1167
▁fashion	-10.1177
▁sentence	-10.1178
▁Fran	-10.1179
right	-10.119
▁Clark	-10.119
▁confide	-10.1192
▁sun	-10.1197
▁damage	-10.1201
▁arriving	-10.1204
▁certain	-10.1204
▁file	-10.1213
▁recover	-10.1233
▁aboard	-10.1235
▁explaining	-10.1242
fer	-10.1243
augh	-10.125
teen	-10.1256
▁manner	-10.1257
born	-10.1259
▁raised	-10.1269
▁Thompson	-10.1269
▁computer	-10.1269
▁prior	-10.1269
▁image	-10.1269
▁telephone	-10.1269
▁stating	-10.1269
▁Sydney	-10.127
▁needed	-10.127
▁slave	-10.1271
▁farmer	-10.1274
▁China	-10.1278
▁Michelle	-10.128
▁Harvey	-10.128
▁forward	-10.1284
▁commits	-10.1291
anna	-10.1292
▁stranger	-10.1295
▁apart	-10.1295
▁taxi	-10.1295
▁worth	-10.1297
▁twin	-10.1298
▁Bert	-10.1302
sey	-10.1322
iao	-10.1327
▁prepare	-10.1333
▁teaching	-10.1334
▁award	-10.1335
serving	-10.1335
advertently	-10.1335
▁latter	-10.1335
▁Christian	-10.1335
▁terrorist	-10.1336
▁handsome	-10.1339
▁disappointed	-10.1342
▁season	-10.1342
▁Bha	-10.1345
▁sisters	-10.1347
ically	-10.1348
▁Lloyd	-10.1351
▁goal	-10.1356
▁bat	-10.1362
▁bi	-10.1364
ome	-10.1376
▁hire	-10.1378
je	-10.1382
William	-10.1384
ella	-10.1384
▁pays	-10.1393
▁maintain	-10.1401
▁Anderson	-10.1401
▁calm	-10.1401
▁dollars	-10.1403
▁awake	-10.1404
▁drag	-10.1409
try	-10.1411
▁anti	-10.1412
▁exam	-10.1418
ress	-10.142
▁broke	-10.1426
▁Ze	-10.1427
vor	-10.1432
ken	-10.1437
▁trick	-10.1441
ative	-10.1442
▁15	-10.1453
Vi	-10.1455
▁started	-10.1457
boat	-10.1463
▁School	-10.1468
▁Earth	-10.1468
▁resume	-10.1468
▁greet	-10.1468
▁carrie	-10.1469
▁non	-10.1471
▁introduced	-10.1479
▁growing	-10.1488
▁mayor	-10.1489
▁lovers	-10.1499
▁protest	-10.1502
▁false	-10.1513
▁elder	-10.1514
elli	-10.1517
▁sabotage	-10.1535
▁subject	-10.1535
▁regain	-10.1535
▁Daisy	-10.1535
▁Lucky	-10.1535
▁aspiring	-10.1535
▁Shankar	-10.1536
▁freedom	-10.1537
▁bitter	-10.1541
▁Russell	-10.1549
▁vows	-10.1554
▁stone	-10.1558
ori	-10.1559
▁month	-10.1576
▁Seth	-10.1577
▁promised	-10.1582
end	-10.1586
▁treated	-10.159
▁Andre	-10.1593
▁gra	-10.1596
▁drama	-10.1598
▁sail	-10.1602
▁Little	-10.1603
▁psychiatrist	-10.1603
▁Joey	-10.1603
non	-10.1604
▁prefer	-10.1604
▁Jessie	-10.1605
▁journalist	-10.1611
▁push	-10.1613
▁cuts	-10.162
▁credits	-10.1621
▁opera	-10.1631
▁seriously	-10.1631
▁Gray	-10.1643
▁Kat	-10.1647
▁accepted	-10.1648
▁apparent	-10.1649
American	-10.1656
▁corrupt	-10.1665
▁Eva	-10.1666
▁honeymoon	-10.1671
▁knife	-10.1671
▁modern	-10.1671
▁distance	-10.1671
▁election	-10.1671
▁labor	-10.1674
▁Allen	-10.1689
▁seeking	-10.1701
▁deeply	-10.1705
ridge	-10.1711
▁Green	-10.1713
▁kid	-10.1718
body	-10.1727
Z	-10.1727
▁estranged	-10.1739
▁expensive	-10.1739
▁remote	-10.1739
▁Raghu	-10.1739
▁article	-10.1739
▁Jeffrey	-10.1739
▁Phillip	-10.174
▁Penny	-10.1741
▁offering	-10.1743
▁Benny	-10.175
▁lesson	-10.1752
yl	-10.1754
▁informed	-10.1761
▁grand	-10.1763
▁Fe	-10.1774
dha	-10.1774
ball	-10.1777
Ann	-10.1784
▁carry	-10.1793
▁faith	-10.1794
▁Che	-10.1796
▁Mel	-10.1799
▁Isabel	-10.1803
▁rural	-10.1808
▁bail	-10.1808
▁abortion	-10.1809
▁construction	-10.1811
▁fame	-10.1814
▁Pen	-10.1815
▁Var	-10.1817
▁pretending	-10.1827
▁skills	-10.1837
")	-10.1838
▁master	-10.1841
▁drinks	-10.1842
▁jobs	-10.1844
▁divorced	-10.1846
▁upper	-10.1847
▁apologize	-10.1857
▁Win	-10.1858
▁ordered	-10.1872
George	-10.1877
▁distraught	-10.1878
▁sheriff	-10.1878
▁names	-10.1878
▁unknown	-10.1879
▁Vince	-10.188
boy	-10.1883
night	-10.1885
▁mere	-10.1899
▁unit	-10.1903
▁none	-10.1906
▁Sta	-10.1907
▁escaped	-10.1912
▁Mala	-10.1915
▁quits	-10.1925
▁collapses	-10.1937
▁Caesar	-10.1948
▁pocket	-10.1948
▁enemy	-10.1948
▁agency	-10.1948
▁ransom	-10.1948
▁transport	-10.1948
▁driven	-10.1949
▁scenes	-10.1949
▁pose	-10.1954
▁salesman	-10.1954
sky	-10.1962
▁mistakes	-10.1966
▁Patrick	-10.1969
wed	-10.1976
▁hu	-10.1978
▁roll	-10.1993
▁Pol	-10.2001
▁challenges	-10.2005
Peter	-10.2006
▁Donald	-10.2007
▁reception	-10.2018
▁university	-10.2018
▁vehicle	-10.2018
▁Keith	-10.2018
▁preparing	-10.2018
▁promising	-10.2018
▁corner	-10.2018
▁expert	-10.2018
▁basketball	-10.2018
▁trapped	-10.2019
▁lonely	-10.2024
▁Sister	-10.2025
ef	-10.2026
▁powerful	-10.2027
▁Lakshmi	-10.2028
▁Joanna	-10.2031
▁riding	-10.2033
▁Tak	-10.2052
ral	-10.2077
▁threat	-10.2082
▁Germany	-10.2087
▁papers	-10.2087
▁misunderstand	-10.2089
▁vision	-10.2089
▁piano	-10.2089
▁overcome	-10.2089
▁heavy	-10.2089
▁cons	-10.2093
▁lake	-10.2094
▁musician	-10.2095
▁study	-10.2097
lum	-10.2111
▁screen	-10.2112
▁tip	-10.212
rag	-10.2131
▁Eli	-10.2133
▁seat	-10.2143
▁starting	-10.2143
▁Afterwards	-10.215
▁mark	-10.215
▁pet	-10.2151
▁audition	-10.216
▁circumstances	-10.216
▁Jordan	-10.216
▁Beverly	-10.216
▁costume	-10.2161
▁mock	-10.2167
▁Cecil	-10.2171
▁turning	-10.2175
▁Virginia	-10.2177
▁Pra	-10.2182
▁national	-10.2182
▁chooses	-10.2188
ora	-10.2189
▁latest	-10.219
aj	-10.2194
▁cheating	-10.22
Su	-10.2204
▁Son	-10.2215
▁fears	-10.2217
▁Morris	-10.2225
ura	-10.2227
▁memories	-10.2232
▁superior	-10.2232
▁absence	-10.2232
▁common	-10.2232
▁version	-10.2232
▁Bernie	-10.2233
nor	-10.2234
▁eight	-10.2234
Ho	-10.2242
▁places	-10.2242
▁$1	-10.2242
Me	-10.2243
▁paying	-10.2258
▁content	-10.2259
▁lie	-10.227
▁ranch	-10.227
q	-10.2271
▁locked	-10.2271
▁friendly	-10.2272
▁storms	-10.2275
nath	-10.2289
▁visited	-10.2293
▁switch	-10.2293
▁Sar	-10.2294
▁8	-10.23
▁nephew	-10.2305
▁silent	-10.2305
▁split	-10.2305
▁Christine	-10.2305
▁barely	-10.2305
▁diner	-10.2305
ump	-10.2309
▁woods	-10.2314
▁busy	-10.2315
▁fell	-10.2316
▁Force	-10.2321
▁Nina	-10.2323
▁speaks	-10.2324
▁intended	-10.2324
▁Ex	-10.2331
eck	-10.2342
▁beating	-10.2345
He	-10.236
▁remembers	-10.2361
take	-10.2372
▁alcohol	-10.2373
▁succeed	-10.2375
▁parent	-10.2376
▁Sebastian	-10.2378
▁routine	-10.2378
▁spread	-10.2378
▁Archie	-10.2378
▁evil	-10.2378
▁least	-10.2378
▁chain	-10.2378
▁coast	-10.2379
▁Mill	-10.2382
▁Fletcher	-10.2384
▁failing	-10.2386
von	-10.239
▁theft	-10.2394
▁employer	-10.2395
▁Patricia	-10.24
▁prisoners	-10.2401
▁fish	-10.2404
▁arrived	-10.2414
▁Barry	-10.242
▁Rosa	-10.2425
▁via	-10.2429
pl	-10.2438
gin	-10.2441
ending	-10.2444
▁list	-10.2449
▁fr	-10.2449
▁occur	-10.245
▁resent	-10.245
▁advantage	-10.2451
▁gradually	-10.2451
▁nervous	-10.2451
▁doubt	-10.2451
▁fed	-10.2451
▁joke	-10.2453
▁Marshall	-10.2453
▁orphanage	-10.2454
▁succeeds	-10.2454
▁ensu	-10.2455
▁attraction	-10.2456
▁paint	-10.2456
▁laugh	-10.2458
▁bully	-10.2463
pec	-10.2476
▁pictures	-10.2479
▁briefly	-10.2482
▁Hari	-10.2483
▁transform	-10.2484
▁resign	-10.2487
▁prisoner	-10.2493
▁app	-10.2504
▁joined	-10.2505
▁Set	-10.2506
▁Cho	-10.251
▁bid	-10.2511
▁cap	-10.2512
▁advis	-10.2514
▁ear	-10.2521
gent	-10.2522
gh	-10.2522
▁Cynthia	-10.2525
▁awkward	-10.2525
▁simple	-10.2525
▁sweetheart	-10.2525
▁henchmen	-10.2525
▁eager	-10.2525
▁clinic	-10.2526
▁cancer	-10.2526
▁Blue	-10.2526
rank	-10.2527
▁Judge	-10.2527
▁bird	-10.2527
▁Three	-10.2527
▁dislike	-10.2528
▁ability	-10.2528
tone	-10.2533
zy	-10.2536
▁anyway	-10.2536
▁castle	-10.254
▁sum	-10.2547
igan	-10.2549
▁lift	-10.2551
ku	-10.2555
ache	-10.2564
zi	-10.2565
.[	-10.257
▁criminals	-10.258
▁State	-10.2582
▁meaning	-10.2594
▁ran	-10.2595
▁Victoria	-10.2596
▁champion	-10.2599
▁bachelor	-10.26
▁depressed	-10.26
▁experiment	-10.26
▁Brother	-10.26
▁route	-10.26
▁elope	-10.26
use	-10.2602
▁reform	-10.2604
air	-10.2606
▁personality	-10.2606
▁Men	-10.2611
▁("	-10.2626
▁Meg	-10.2631
▁crying	-10.2636
▁30	-10.264
▁relatives	-10.2657
▁display	-10.266
▁recent	-10.2666
Charles	-10.2668
▁widowed	-10.2671
▁Gill	-10.2674
▁Sergeant	-10.2675
▁neglect	-10.2675
▁promotion	-10.2675
▁Nelson	-10.2675
▁enraged	-10.2675
▁session	-10.2675
▁Alexander	-10.2675
▁fool	-10.2675
with	-10.2675
▁suburb	-10.2676
▁tension	-10.2676
truly	-10.2678
▁pleads	-10.2678
▁devastated	-10.2689
▁publisher	-10.2694
aiah	-10.2694
▁Tina	-10.2694
▁intention	-10.2707
▁Bea	-10.271
letting	-10.2716
gie	-10.2718
▁author	-10.2737
▁wonder	-10.2741
▁adopted	-10.2745
▁Through	-10.2749
▁Maurice	-10.2751
▁citizen	-10.2751
▁space	-10.2751
▁profit	-10.2751
▁Gopal	-10.2752
▁Texas	-10.2752
▁Jamal	-10.2753
▁temple	-10.2754
▁McG	-10.2757
▁passion	-10.2769
▁duo	-10.277
▁recognize	-10.2781
▁improve	-10.2783
▁defense	-10.2786
▁mentally	-10.2786
worker	-10.2791
▁requests	-10.2803
▁residents	-10.2804
ook	-10.2808
▁survive	-10.2812
bin	-10.2812
▁challenge	-10.2812
Do	-10.2814
▁mess	-10.2815
▁fishing	-10.2817
pur	-10.2818
▁sales	-10.282
▁Ian	-10.2825
▁pursuit	-10.2827
▁reunion	-10.2827
▁smoke	-10.2827
▁mask	-10.2828
▁weak	-10.2833
▁Leon	-10.2833
▁confused	-10.2835
▁Irene	-10.2845
▁Bre	-10.2846
▁Gold	-10.2848
▁Steven	-10.2857
▁musical	-10.2865
▁desperately	-10.2867
▁tea	-10.2875
▁woo	-10.2875
▁answers	-10.2884
▁sacrifice	-10.289
▁reunite	-10.2895
Re	-10.2902
▁Valerie	-10.2904
▁Tracy	-10.2904
▁withdraw	-10.2904
▁Moore	-10.2904
▁Officer	-10.2907
▁illness	-10.291
▁demanding	-10.291
▁Things	-10.2911
▁pub	-10.2912
▁comic	-10.2917
▁mail	-10.2918
▁depart	-10.2919
▁relative	-10.2922
▁alien	-10.2924
▁Holly	-10.2928
▁throwing	-10.2936
▁copy	-10.2937
▁fine	-10.2942
▁guys	-10.2944
▁replace	-10.2953
▁abuse	-10.2954
Pa	-10.2955
illa	-10.2956
▁photographer	-10.2962
▁Australia	-10.2964
Ka	-10.2968
▁sexually	-10.2974
▁conduct	-10.2975
▁sad	-10.2977
▁Campbell	-10.2982
▁adventure	-10.2982
▁celebration	-10.2982
▁execution	-10.2982
▁observe	-10.2982
▁Tucker	-10.2982
▁broadcast	-10.2982
▁Vicky	-10.2982
▁obsessed	-10.2994
▁Master	-10.2999
▁Sid	-10.3
▁Nan	-10.3008
▁afterwards	-10.3016
▁neighbors	-10.3023
can	-10.303
life	-10.3032
▁Babu	-10.3034
▁filled	-10.3036
▁stab	-10.3043
▁Miranda	-10.306
▁marijuana	-10.306
▁necklace	-10.306
▁abusive	-10.306
▁queen	-10.306
▁wives	-10.306
▁snow	-10.3063
▁Arab	-10.3064
▁basement	-10.3064
.[4]	-10.3068
▁winner	-10.3072
▁Cole	-10.3076
▁concludes	-10.3084
▁Joy	-10.309
▁Nag	-10.3093
▁Nicky	-10.3099
▁rule	-10.3107
▁actual	-10.3118
▁Las	-10.3121
nam	-10.3123
▁Bow	-10.3127
hand	-10.3131
▁keeping	-10.3136
▁document	-10.3137
▁acquaintance	-10.3139
▁deceased	-10.3139
▁increase	-10.3139
▁violence	-10.3139
▁Mildred	-10.3139
▁Sophie	-10.3139
▁undercover	-10.3139
▁smile	-10.3139
▁proud	-10.3139
▁bullet	-10.314
▁cur	-10.314
wee	-10.3141
▁involves	-10.3142
pathi	-10.3142
▁Ball	-10.3143
▁Jessica	-10.3148
▁fictional	-10.3151
▁establish	-10.3152
▁Sever	-10.3155
▁Juliet	-10.316
▁warm	-10.3164
▁rap	-10.3173
▁Rama	-10.318
▁isn	-10.3181
▁My	-10.3185
his	-10.3204
▁forest	-10.3206
cal	-10.3213
▁concern	-10.3216
▁easily	-10.3218
▁helicopter	-10.3218
▁companion	-10.3218
▁depict	-10.3218
▁Craig	-10.3218
▁price	-10.3218
▁ladies	-10.3218
▁joy	-10.3218
▁Ronnie	-10.3218
▁minister	-10.3219
▁acts	-10.322
▁12	-10.3221
ability	-10.3222
▁Irish	-10.3222
▁tough	-10.3225
▁Stewart	-10.3226
▁Rock	-10.3239
0,000	-10.3241
▁Yo	-10.3253
▁presents	-10.3254
▁customer	-10.326
▁lock	-10.3263
rav	-10.3263
▁troubled	-10.3279
char	-10.3296
▁Muslim	-10.3298
▁invitation	-10.3298
▁quarrel	-10.3298
▁response	-10.3298
▁Seenu	-10.3299
▁hat	-10.3304
▁millionaire	-10.3309
▁Chip	-10.331
▁reports	-10.3311
▁Hol	-10.3317
top	-10.332
Sha	-10.3325
▁Cat	-10.3354
▁Ger	-10.3355
range	-10.3356
▁port	-10.3356
▁unsuccessful	-10.3357
▁stole	-10.3361
▁handle	-10.3369
ole	-10.3378
▁uniform	-10.3379
▁dismay	-10.3379
▁riot	-10.3379
pan	-10.3379
▁fair	-10.3382
▁Hong	-10.3385
▁ahead	-10.3389
▁Olivia	-10.3389
▁murderer	-10.34
▁Juan	-10.3403
▁admit	-10.3413
▁passenger	-10.3416
elle	-10.3423
▁wed	-10.3428
wife	-10.3451
nna	-10.3454
▁Pooja	-10.346
▁belief	-10.346
▁niece	-10.346
▁comment	-10.346
▁assignment	-10.3461
▁robber	-10.3467
▁confidence	-10.3474
▁matters	-10.3476
▁Lance	-10.3476
▁hometown	-10.3479
▁pal	-10.3487
▁comedy	-10.3488
▁pin	-10.3491
▁threatened	-10.3495
▁expected	-10.3496
▁Stra	-10.3506
▁Africa	-10.3524
▁speaking	-10.3536
▁coffee	-10.3542
▁commission	-10.3542
▁surrender	-10.3542
▁achieve	-10.3542
▁Arnold	-10.3542
▁numer	-10.3542
▁Sheriff	-10.3542
▁cigarette	-10.3542
▁afford	-10.3542
▁hook	-10.3542
▁portray	-10.3542
▁Doris	-10.3543
▁prank	-10.3545
▁highly	-10.3547
▁faces	-10.3548
▁arrangement	-10.3551
▁5	-10.3555
▁hanging	-10.3562
Ch	-10.3562
dar	-10.3566
[	-10.3575
▁sing	-10.3576
▁diamonds	-10.358
▁diamond	-10.3586
▁Les	-10.3593
▁Lt	-10.3602
▁sudden	-10.3603
▁kissing	-10.3613
hana	-10.3622
▁escaping	-10.3624
▁scientist	-10.3624
▁pistol	-10.3624
▁tank	-10.3625
▁favorite	-10.3626
▁kidnapping	-10.3628
▁grandson	-10.3629
gate	-10.3632
▁confession	-10.3633
▁Monty	-10.3637
▁animals	-10.3637
▁Douglas	-10.3644
▁sort	-10.3649
▁What	-10.3653
▁Kim	-10.3656
endra	-10.3658
▁flower	-10.366
▁Ve	-10.3665
▁interrupt	-10.3666
▁separated	-10.3677
▁customers	-10.3678
hun	-10.3684
▁tend	-10.3686
mble	-10.3687
star	-10.3687
iff	-10.3695
▁neighbour	-10.3707
▁feature	-10.3708
▁politician	-10.3708
▁corpse	-10.3708
▁Field	-10.3708
▁ambition	-10.3708
▁cruel	-10.3712
▁Liz	-10.3718
▁Todd	-10.3718
▁blames	-10.3724
▁cliff	-10.3725
▁ob	-10.3732
▁includes	-10.3738
▁Char	-10.3746
lay	-10.3749
▁assassin	-10.3753
▁choose	-10.376
▁Elliot	-10.3761
▁burning	-10.3766
▁quick	-10.377
▁initial	-10.377
▁mom	-10.3772
▁Sr	-10.3774
▁launch	-10.378
▁Love	-10.3787
▁College	-10.3792
▁Travis	-10.3792
▁receiving	-10.3792
▁Canada	-10.3792
▁value	-10.3792
▁Ge	-10.3794
▁Madhu	-10.3794
▁Skip	-10.3794
▁misses	-10.3794
▁delay	-10.3795
▁Good	-10.3796
▁Baker	-10.3797
▁justice	-10.3802
▁Cliff	-10.3806
▁Lester	-10.3807
▁Woody	-10.3835
▁clients	-10.3839
▁Cre	-10.3841
▁Vera	-10.3844
▁recovers	-10.3845
▁colleague	-10.3847
▁boxing	-10.3855
▁disappears	-10.3855
Ar	-10.3858
▁prospect	-10.3874
▁scar	-10.3875
▁habit	-10.3877
▁victory	-10.3877
▁script	-10.3877
▁Evelyn	-10.3877
▁chased	-10.3877
▁posing	-10.3877
▁Minister	-10.3877
▁hole	-10.3878
▁Kurt	-10.3878
▁fond	-10.3879
▁gambler	-10.3883
▁details	-10.3884
utt	-10.3899
▁refuse	-10.3906
▁buying	-10.3915
▁inherit	-10.3918
▁wake	-10.3936
Tom	-10.3938
▁creates	-10.3939
▁regular	-10.394
▁slip	-10.3944
▁progress	-10.395
▁commercial	-10.3962
▁regret	-10.3962
▁survivor	-10.3962
▁Kapoor	-10.3962
▁native	-10.3962
▁insults	-10.3962
▁motorcycle	-10.3962
▁minor	-10.3962
▁Great	-10.3964
▁theatre	-10.3965
▁status	-10.3967
▁sells	-10.3969
▁teaches	-10.3978
ila	-10.3985
▁Tam	-10.3994
▁signal	-10.3995
not	-10.4006
▁hates	-10.4012
▁counter	-10.4014
▁ocean	-10.4048
▁surgery	-10.4048
▁Returning	-10.4048
▁Laurel	-10.4049
▁Old	-10.4049
▁Doyle	-10.4049
▁nei	-10.405
▁nor	-10.4052
▁Joyce	-10.4052
vert	-10.4053
stein	-10.4054
▁Zack	-10.4054
Joan	-10.4055
▁react	-10.4056
▁Gabriel	-10.406
▁Zach	-10.4065
▁correct	-10.4065
▁focus	-10.4066
▁flame	-10.4072
▁sports	-10.4079
▁Lan	-10.4094
▁complain	-10.4104
mmy	-10.4105
▁Mun	-10.4125
Lo	-10.4125
▁swim	-10.4135
▁Florida	-10.4135
▁finance	-10.4135
▁genuine	-10.4135
▁grief	-10.4135
▁loud	-10.4135
▁chaos	-10.4135
▁solve	-10.4136
▁Rusty	-10.4136
▁existence	-10.4136
▁Chester	-10.4138
fire	-10.414
▁Burke	-10.4141
▁Bel	-10.4142
▁punches	-10.4145
▁Sen	-10.4148
▁Nell	-10.4149
▁scr	-10.4155
▁cab	-10.4161
▁cru	-10.4162
cap	-10.4176
▁fighter	-10.4178
hor	-10.4179
▁Mohan	-10.4182
▁Bart	-10.4189
▁engage	-10.4191
▁Corn	-10.4191
▁approach	-10.4194
▁coat	-10.4195
▁beer	-10.4211
▁magic	-10.4222
▁Natalie	-10.4223
▁advertising	-10.4223
▁kitchen	-10.4223
▁mechanic	-10.4223
▁participate	-10.4223
▁traffic	-10.4223
▁Hannah	-10.4223
▁wrote	-10.4223
▁beloved	-10.4223
▁194	-10.4223
▁insult	-10.4224
▁inspector	-10.4225
▁assistance	-10.4225
▁Becky	-10.4231
▁Sylvia	-10.4231
▁campus	-10.424
▁surrounding	-10.4249
▁worked	-10.4253
▁compete	-10.4254
▁Er	-10.4257
▁Kane	-10.4261
itch	-10.4264
▁Bin	-10.4278
▁Sun	-10.4285
▁picked	-10.4285
▁suspicion	-10.4298
▁animal	-10.4298
▁advance	-10.4299
▁coin	-10.4309
▁Due	-10.4311
▁landlord	-10.4311
▁Clyde	-10.4312
▁brain	-10.4312
▁Pearl	-10.4312
▁stress	-10.4313
uk	-10.4317
▁pan	-10.4321
▁funds	-10.4326
▁Union	-10.4329
▁forever	-10.433
▁Shan	-10.4332
▁slips	-10.4338
▁Santa	-10.434
▁convicted	-10.4341
haw	-10.4341
▁physically	-10.4343
▁Leslie	-10.4346
Bill	-10.4347
now	-10.4349
▁Wal	-10.4354
▁deed	-10.4355
▁Gen	-10.4368
▁fund	-10.4369
ama	-10.4371
▁Colin	-10.4382
▁survives	-10.4384
▁Adams	-10.4389
▁butler	-10.4391
berg	-10.4392
▁plea	-10.4395
unk	-10.4397
▁addict	-10.4399
▁graduation	-10.4401
▁Kennedy	-10.4401
▁Wallace	-10.4401
▁reflect	-10.4401
▁closing	-10.4401
▁injuries	-10.4401
▁represent	-10.4402
▁Percy	-10.4403
▁Dutch	-10.4403
▁spite	-10.4403
▁spare	-10.4407
▁befriend	-10.4409
dom	-10.4409
▁cancel	-10.4416
▁Bull	-10.4425
▁tickets	-10.4444
▁You	-10.4446
▁fur	-10.4448
▁Sub	-10.4449
▁burn	-10.4449
▁Sand	-10.4455
bri	-10.446
lip	-10.4466
▁jealousy	-10.4467
▁Erik	-10.4474
▁Rome	-10.4478
▁Pop	-10.4485
▁affect	-10.4485
uri	-10.449
▁Lillian	-10.4491
▁Samantha	-10.4491
▁fraud	-10.4491
▁garage	-10.4491
▁Curtis	-10.4492
▁Mitchell	-10.4493
▁contacts	-10.4494
▁Theresa	-10.4494
▁Perry	-10.4495
▁River	-10.4498
▁direction	-10.4499
▁dismisses	-10.4499
▁feet	-10.4511
▁More	-10.4514
▁pop	-10.4521
▁Dora	-10.4522
▁exit	-10.4527
▁style	-10.453
hal	-10.4537
▁cops	-10.4543
key	-10.4544
▁rules	-10.4553
She	-10.4556
▁Sim	-10.4561
▁waits	-10.4567
▁your	-10.4568
▁landing	-10.4569
▁passed	-10.457
▁proceed	-10.4576
▁Felix	-10.4582
▁Happy	-10.4582
▁explosion	-10.4582
▁frustration	-10.4582
▁innocence	-10.4582
▁mutual	-10.4582
▁thousand	-10.4582
▁Vanessa	-10.4582
▁Jersey	-10.4582
▁easy	-10.4582
▁swimming	-10.4582
▁Pedro	-10.4582
▁193	-10.4585
▁breakdown	-10.4585
▁Mag	-10.4591
▁Kun	-10.4591
▁Under	-10.4592
▁payment	-10.4602
yne	-10.4604
▁flu	-10.4606
▁Miles	-10.461
▁retired	-10.4611
▁Sel	-10.4613
▁shift	-10.4617
▁Years	-10.4617
▁protests	-10.4627
▁performs	-10.4629
▁Land	-10.4631
dri	-10.4635
ius	-10.4638
▁locks	-10.4639
▁Pam	-10.464
mann	-10.4643
▁determine	-10.4644
▁hill	-10.4644
▁glass	-10.4662
▁Maya	-10.4666
▁super	-10.4673
▁bodies	-10.4673
▁medicine	-10.4673
▁treasure	-10.4673
▁fresh	-10.4674
▁struck	-10.4674
▁Bank	-10.4676
▁198	-10.4676
▁Also	-10.4677
▁Jonas	-10.4677
▁anymore	-10.4679
woman	-10.4683
▁Still	-10.4687
▁raped	-10.469
▁ended	-10.4692
▁mini	-10.4692
▁Nicole	-10.4692
▁fla	-10.4697
▁debts	-10.4698
place	-10.4711
▁lure	-10.4715
▁Carr	-10.4738
▁unexpected	-10.4744
▁Doc	-10.4747
▁severe	-10.4747
▁cu	-10.475
▁pushe	-10.4757
wick	-10.4765
▁approve	-10.4766
▁candidate	-10.4766
▁confusion	-10.4766
▁disease	-10.4766
▁studies	-10.4766
▁Alfred	-10.4766
▁Vivian	-10.4766
▁courage	-10.4766
▁Tyler	-10.4766
▁culture	-10.4767
▁Charley	-10.4769
▁Bird	-10.4776
▁suspicions	-10.478
mond	-10.4783
▁severely	-10.4788
▁mean	-10.4799
▁drawn	-10.4802
▁flashbacks	-10.4804
▁institution	-10.4807
▁issue	-10.4813
▁Dale	-10.4819
Ni	-10.4821
▁lived	-10.4828
raising	-10.484
rich	-10.4843
bil	-10.4844
▁expect	-10.4849
▁invest	-10.4852
▁proper	-10.4857
▁sequence	-10.486
▁Madame	-10.486
▁Kyle	-10.486
▁taunt	-10.486
▁nice	-10.486
▁Calvin	-10.4861
▁involvement	-10.4861
▁moral	-10.4862
▁shy	-10.4862
▁Casey	-10.4864
▁Abby	-10.4864
▁Fox	-10.4865
▁Alison	-10.4869
▁sale	-10.4874
▁Homer	-10.4877
▁Out	-10.4883
▁Royal	-10.489
▁refused	-10.4892
▁employees	-10.4898
▁Fair	-10.4898
gotten	-10.4916
Di	-10.4919
▁retire	-10.4921
▁addition	-10.4923
▁$2	-10.4936
▁industry	-10.4954
▁Debbie	-10.4954
▁Junior	-10.4954
▁Manhattan	-10.4954
▁embark	-10.4954
▁heartbroken	-10.4954
▁pregnancy	-10.4954
▁retreat	-10.4954
▁rifle	-10.4954
▁Rod	-10.4955
▁Club	-10.4955
yard	-10.4957
▁Lang	-10.4959
▁imprisoned	-10.4961
▁airline	-10.4961
▁suggestion	-10.4962
▁From	-10.4963
▁reasons	-10.4966
Chris	-10.4967
ual	-10.497
▁Venu	-10.497
▁homeless	-10.4972
▁Mick	-10.4974
▁ensure	-10.4975
▁complicated	-10.4976
▁unsuccessfully	-10.4979
▁defi	-10.498
▁minute	-10.4982
▁meal	-10.4983
▁Law	-10.4985
ndra	-10.4995
▁twins	-10.5011
▁lower	-10.5014
asi	-10.5015
mark	-10.5022
ccompanied	-10.5023
▁departs	-10.5027
ano	-10.5028
▁reunites	-10.503
▁mill	-10.5047
▁Catholic	-10.5049
▁Dreyfus	-10.5049
▁Mexican	-10.5049
▁Vietnam	-10.5049
▁recommend	-10.5049
▁responsibility	-10.5049
▁violin	-10.5049
▁Fanny	-10.5049
▁conceal	-10.5049
▁First	-10.5049
▁guide	-10.5049
▁gym	-10.5049
▁inheritance	-10.5051
▁convert	-10.5051
▁Freddie	-10.5052
▁forgiveness	-10.5053
▁tale	-10.5054
▁Winter	-10.5055
▁Sur	-10.5057
▁goons	-10.5058
▁trailer	-10.5064
cast	-10.5065
horn	-10.5068
▁dealing	-10.5074
▁publish	-10.5079
▁Hay	-10.5082
▁Neil	-10.5087
▁Mona	-10.5089
▁consist	-10.5093
▁emotionally	-10.5094
▁approached	-10.5095
itz	-10.5098
▁Prem	-10.5114
arm	-10.5115
▁locate	-10.5115
▁charged	-10.5136
ola	-10.5138
stage	-10.514
oke	-10.5143
▁Court	-10.5144
▁transfer	-10.5145
▁Gene	-10.5145
▁refusing	-10.5145
▁Dexter	-10.5145
▁climax	-10.5145
▁uncover	-10.5145
▁Another	-10.5145
▁Jamie	-10.5145
▁loose	-10.5145
▁naive	-10.5146
▁Heather	-10.5146
▁informing	-10.5146
▁indicat	-10.5146
▁tribe	-10.5147
▁Japan	-10.5147
▁happening	-10.5147
▁pills	-10.5157
aft	-10.5157
▁gangsters	-10.5161
▁refer	-10.5165
▁tired	-10.5165
▁cure	-10.5167
arrow	-10.5178
▁provides	-10.5189
▁sole	-10.5191
▁lay	-10.5209
▁recording	-10.5217
▁Hart	-10.5219
▁minutes	-10.5231
ister	-10.5233
▁performer	-10.5234
▁Baron	-10.5235
▁permission	-10.5242
▁temporarily	-10.5242
▁valuable	-10.5242
▁palace	-10.5242
▁Pierce	-10.5242
▁pretty	-10.5242
▁Kingsley	-10.5243
▁formula	-10.5246
▁195	-10.5247
▁somehow	-10.5247
▁assassination	-10.5247
▁Dunn	-10.5248
▁cave	-10.5252
rick	-10.5253
Donald	-10.5257
▁Eugene	-10.5258
Frank	-10.5259
▁Pur	-10.526
▁Murray	-10.5267
▁Rich	-10.5267
▁threaten	-10.5267
▁term	-10.5269
under	-10.5269
▁delighted	-10.5272
▁Clarke	-10.5283
door	-10.53
▁searches	-10.5302
▁attract	-10.5314
tory	-10.5319
hearted	-10.5323
▁union	-10.5331
▁Chand	-10.5332
▁teen	-10.5338
▁immigrant	-10.534
▁nuclear	-10.534
▁residence	-10.534
▁townspeople	-10.534
▁Britain	-10.534
▁brawl	-10.534
▁CIA	-10.534
▁appeal	-10.534
▁injury	-10.534
▁stuck	-10.5341
worth	-10.5341
▁somewhat	-10.5342
▁cruise	-10.5342
▁records	-10.5344
▁bump	-10.5344
▁Carlos	-10.5346
▁romantically	-10.5346
▁bell	-10.5346
▁dramatic	-10.5347
▁describes	-10.535
▁Margo	-10.5353
▁clothing	-10.5356
▁frequently	-10.5359
▁Jeremy	-10.5363
list	-10.5364
▁respond	-10.5367
▁intervenes	-10.5376
▁200	-10.5377
▁Ten	-10.538
kha	-10.5384
▁understanding	-10.5387
▁contains	-10.5388
[3]	-10.5388
▁Bell	-10.5395
▁expecting	-10.5406
▁Kar	-10.5417
▁powers	-10.5419
▁clearly	-10.542
▁Ace	-10.5421
▁dock	-10.5422
▁armed	-10.5434
▁critic	-10.5436
You	-10.5438
▁Mumbai	-10.5439
▁ambulance	-10.5439
▁religious	-10.5439
▁smoking	-10.5439
▁Second	-10.5439
▁Cathy	-10.5439
▁chasing	-10.5439
▁scam	-10.5439
▁Collins	-10.544
▁Agnes	-10.544
▁Adrian	-10.544
▁Aaron	-10.544
▁bored	-10.544
▁iron	-10.5441
▁socialite	-10.5443
▁Ford	-10.5445
break	-10.5456
amma	-10.5459
mala	-10.546
▁Raymond	-10.5466
▁tied	-10.5467
ffer	-10.547
▁Rex	-10.5483
▁distract	-10.5491
▁Marine	-10.5503
▁below	-10.5504
▁tear	-10.5526
▁Maha	-10.5527
dale	-10.5532
Be	-10.5535
xi	-10.5536
cket	-10.5536
▁Brooklyn	-10.5539
▁Department	-10.5539
▁disrupt	-10.5539
▁governor	-10.5539
▁supply	-10.5539
▁twenty	-10.5539
▁Wendy	-10.5539
▁burst	-10.5539
▁Dusty	-10.554
▁clue	-10.5541
▁Nu	-10.5543
workers	-10.5544
▁buried	-10.5546
▁Dodge	-10.5547
▁described	-10.5549
▁delivers	-10.5551
▁Brenda	-10.5556
▁alert	-10.5557
▁Wade	-10.5557
▁lights	-10.556
▁Arm	-10.5567
▁associate	-10.5574
pat	-10.5577
▁lied	-10.5586
water	-10.5586
▁borrow	-10.5598
▁signs	-10.5605
▁grant	-10.5606
▁pursues	-10.5608
▁Ron	-10.5608
▁weapons	-10.561
▁Count	-10.5619
▁Boyd	-10.562
▁Bab	-10.5625
▁yell	-10.564
▁Company	-10.564
▁Israel	-10.564
▁poverty	-10.564
▁smitten	-10.564
▁upstairs	-10.564
▁behalf	-10.564
▁farewell	-10.564
▁therefore	-10.564
▁Bishop	-10.564
▁distant	-10.564
▁rumor	-10.564
▁Violet	-10.564
▁Berlin	-10.5644
▁shoes	-10.5645
burg	-10.5649
▁instantly	-10.565
▁Rudy	-10.565
▁sailor	-10.565
▁Wang	-10.5652
▁Bella	-10.5653
▁Ella	-10.5662
▁Claude	-10.5671
▁Dorothy	-10.5677
▁Hugh	-10.5677
▁remarks	-10.5685
▁delivery	-10.5694
▁bound	-10.5694
tric	-10.57
▁If	-10.5712
▁services	-10.5728
aka	-10.5732
oon	-10.5733
▁statue	-10.5734
▁Lieutenant	-10.5742
▁district	-10.5742
▁explanation	-10.5742
▁faint	-10.5742
▁intelligence	-10.5742
▁patrol	-10.5742
▁naked	-10.5742
▁Denise	-10.5742
▁combat	-10.5743
▁Troy	-10.5743
pal	-10.5743
▁Preston	-10.5743
▁above	-10.5743
▁Pip	-10.5743
▁devote	-10.5743
▁owes	-10.5743
▁Susie	-10.5743
Th	-10.5744
▁foreign	-10.5744
▁belongs	-10.5745
▁delivered	-10.5746
bul	-10.5754
▁Vasu	-10.5755
▁bath	-10.5763
▁accompanie	-10.577
▁Milo	-10.5783
uous	-10.58
poli	-10.58
▁Fen	-10.5823
▁constant	-10.5824
▁Ji	-10.5833
▁accomplice	-10.5846
▁built	-10.5846
▁depression	-10.5846
▁investigating	-10.5846
▁surgeon	-10.5846
▁Lennie	-10.5846
▁arguing	-10.5846
▁mystery	-10.5846
▁otherwise	-10.5846
▁warehouse	-10.5846
▁level	-10.5846
▁championship	-10.5847
▁employment	-10.5847
▁await	-10.5848
▁indeed	-10.5851
▁auto	-10.5852
▁Kong	-10.5857
▁Amir	-10.586
▁Chance	-10.5861
▁league	-10.5864
▁prompting	-10.5868
▁thoughts	-10.5876
▁eating	-10.5876
▁betrayed	-10.5878
▁understands	-10.5891
chan	-10.5892
ador	-10.5893
race	-10.5893
▁pray	-10.59
wing	-10.59
▁Roll	-10.5904
▁disguised	-10.5909
▁crack	-10.5915
form	-10.5917
sses	-10.5917
▁Dun	-10.5918
▁announce	-10.5921
▁Mann	-10.5922
▁sings	-10.5928
▁Moon	-10.593
▁intern	-10.5949
▁squad	-10.5949
▁relation	-10.5949
▁convincing	-10.595
▁heavily	-10.595
▁strength	-10.595
▁tournament	-10.595
▁exhibit	-10.595
▁brand	-10.595
▁stick	-10.595
▁Walker	-10.5951
▁select	-10.5951
▁Ellie	-10.5952
▁Noah	-10.5953
▁wine	-10.5954
▁edge	-10.5956
▁Riley	-10.5958
▁rocket	-10.5958
▁reaction	-10.5959
▁stunt	-10.5968
▁Ash	-10.5985
▁$	-10.6005
Co	-10.601
▁Carrie	-10.6013
Each	-10.6014
▁mon	-10.6015
▁skill	-10.602
tsu	-10.6025
▁heroin	-10.6029
▁Hunt	-10.6032
▁Josh	-10.6037
▁boxer	-10.6041
▁hunt	-10.6053
▁Fat	-10.6053
▁Stephanie	-10.6055
▁Vikram	-10.6055
▁principal	-10.6055
▁trigger	-10.6055
▁patron	-10.6055
▁facing	-10.6055
▁isolated	-10.6055
▁neck	-10.6056
placing	-10.6056
▁frantic	-10.6056
▁nine	-10.6057
▁spies	-10.606
▁199	-10.606
▁insist	-10.6086
▁distracted	-10.61
mont	-10.6106
▁closet	-10.6116
▁explodes	-10.6122
▁flash	-10.6125
▁safely	-10.6126
▁frame	-10.6132
▁Paula	-10.614
ised	-10.6142
▁Allie	-10.6144
▁photos	-10.6144
▁fo	-10.6148
▁intentions	-10.6149
▁yard	-10.6149
▁punch	-10.615
▁loyal	-10.6158
▁Reynolds	-10.6161
▁equipment	-10.6161
▁individual	-10.6161
▁language	-10.6161
▁natural	-10.6161
▁opinion	-10.6161
▁predict	-10.6161
▁acquire	-10.6161
▁Joshua	-10.6161
▁unwilling	-10.6161
▁Rahul	-10.6161
▁strict	-10.6161
▁whereabouts	-10.6161
▁itself	-10.6163
▁Kenny	-10.6165
▁flirt	-10.6166
▁foil	-10.6166
▁Salim	-10.6169
▁entering	-10.6172
▁publicity	-10.6173
▁parking	-10.6181
▁closed	-10.6186
(	-10.6186
▁dig	-10.6195
bury	-10.6198
▁Hard	-10.6199
In	-10.6203
▁Art	-10.6211
▁headed	-10.6214
▁notes	-10.6217
▁thugs	-10.6225
▁hunting	-10.6226
▁Justin	-10.623
▁fully	-10.6232
ograph	-10.6233
▁Tar	-10.6234
▁Shu	-10.6248
bha	-10.6261
▁Daphne	-10.6269
▁identify	-10.6269
▁trunk	-10.6269
▁Edith	-10.6269
▁Fresh	-10.6269
▁Wolf	-10.627
▁gunpoint	-10.627
▁dropped	-10.627
▁Miami	-10.6271
▁tele	-10.6271
▁Candy	-10.6273
▁gate	-10.628
▁Horn	-10.6281
▁Florence	-10.6283
▁mentor	-10.6288
▁map	-10.6318
▁exposed	-10.6323
▁Bean	-10.6324
▁Wally	-10.6328
▁commander	-10.6339
▁overhear	-10.6346
▁fill	-10.6347
▁Bon	-10.6348
▁Zi	-10.6349
▁brutal	-10.6356
▁higher	-10.6363
eral	-10.6366
▁Year	-10.6368
So	-10.6369
Fa	-10.637
▁prom	-10.6376
▁Hamilton	-10.6378
▁ambitious	-10.6378
▁entrance	-10.6378
▁explore	-10.6378
▁infatuated	-10.6378
▁telegram	-10.6378
▁material	-10.6378
▁disaster	-10.6378
▁motive	-10.6378
▁limit	-10.6378
▁firing	-10.6378
▁bowl	-10.6378
▁access	-10.6378
▁golf	-10.6378
▁infant	-10.6378
▁Leonard	-10.6381
▁finger	-10.6381
▁Heera	-10.6383
▁Amos	-10.6385
▁Malcolm	-10.6387
▁rebel	-10.639
▁treats	-10.6394
▁traditional	-10.64
▁Lola	-10.6414
▁Flo	-10.6416
▁Baby	-10.6435
ouch	-10.6436
▁earns	-10.646
▁restore	-10.6461
cat	-10.6464
etti	-10.6467
Mary	-10.6472
▁Sk	-10.6477
▁Audrey	-10.6487
▁hockey	-10.6487
▁portrait	-10.6487
▁pursuing	-10.6487
▁tunnel	-10.6487
▁Girl	-10.6488
▁Derek	-10.6488
▁idol	-10.6488
▁type	-10.6488
▁tail	-10.6488
▁$3	-10.6488
▁awakens	-10.6489
▁deliberately	-10.649
▁footage	-10.649
▁mobster	-10.6492
▁Richie	-10.6493
▁wallet	-10.6495
▁ignores	-10.6499
▁hitting	-10.65
▁suitor	-10.65
▁adoption	-10.6501
▁para	-10.6504
▁package	-10.6508
▁earning	-10.6528
▁Guy	-10.6529
fall	-10.6545
▁mix	-10.6557
▁Bay	-10.6558
▁recovered	-10.6559
▁dressing	-10.6571
▁Cap	-10.6573
▁fatal	-10.6577
▁Sea	-10.6592
▁electric	-10.6596
▁views	-10.6597
▁Service	-10.6599
▁breakfast	-10.6599
▁horror	-10.6599
▁narrate	-10.6599
▁supplies	-10.6599
▁sympathetic	-10.6599
▁thieves	-10.6599
▁yacht	-10.6599
▁Feeling	-10.6599
▁Gerald	-10.6599
▁jury	-10.6599
▁racing	-10.6599
▁multiple	-10.6599
▁renew	-10.6599
▁Alec	-10.6599
▁foster	-10.6601
▁13	-10.6602
▁nowhere	-10.6604
▁Luci	-10.6605
pin	-10.6606
▁arise	-10.6607
▁product	-10.6607
▁Gor	-10.6607
▁publicly	-10.6609
▁blonde	-10.6609
▁Rand	-10.661
▁exactly	-10.6613
▁Harrison	-10.6613
▁volunteers	-10.6613
▁possess	-10.6614
▁parties	-10.6615
▁Barton	-10.6619
▁regularly	-10.6627
but	-10.663
▁tent	-10.6636
iya	-10.664
▁burned	-10.665
▁stumbles	-10.6661
rang	-10.6676
▁vow	-10.6687
▁Chandra	-10.6687
▁code	-10.6687
▁Jed	-10.6689
▁mate	-10.6695
▁Ag	-10.6702
▁shame	-10.6704
how	-10.6708
▁aristocrat	-10.6711
▁architect	-10.6711
▁excited	-10.6711
▁hundred	-10.6711
▁Judith	-10.6711
▁Wyatt	-10.6711
▁sweet	-10.6711
▁Cindy	-10.6711
▁Street	-10.6711
▁blue	-10.6711
▁afternoon	-10.6711
▁trash	-10.6711
▁slaps	-10.6711
▁alarm	-10.6711
▁hostile	-10.6713
▁liking	-10.6714
▁shake	-10.6714
▁proof	-10.6715
▁thereafter	-10.6716
▁rat	-10.6718
iah	-10.6722
citing	-10.6727
▁blows	-10.6732
▁Warren	-10.6735
▁summons	-10.6735
ichi	-10.6736
▁inspired	-10.6737
grew	-10.6739
▁exist	-10.6743
▁thank	-10.6743
▁disturbed	-10.6744
▁ties	-10.6749
▁colleagues	-10.675
").	-10.6752
▁Tess	-10.6754
Jane	-10.6756
▁Page	-10.6763
▁Barr	-10.677
▁Rev	-10.6773
▁crooks	-10.6774
Georg	-10.6789
▁acc	-10.6795
▁emerges	-10.6799
▁wing	-10.682
▁Lynn	-10.6822
▁Iris	-10.6822
▁occasion	-10.6823
▁Governor	-10.6825
▁Suddenly	-10.6825
▁acknowledg	-10.6825
▁beyond	-10.6825
▁descend	-10.6825
▁terrible	-10.6825
▁Miriam	-10.6825
▁evict	-10.6825
▁implicat	-10.6825
▁smash	-10.6825
▁casual	-10.6825
▁Elaine	-10.6825
▁Randall	-10.6825
▁troops	-10.6826
▁monster	-10.6827
▁everybody	-10.6827
▁Patsy	-10.6828
▁spotted	-10.6828
▁stake	-10.683
▁Millie	-10.6833
▁Geoffrey	-10.6835
▁active	-10.6842
▁likely	-10.6845
▁sky	-10.6853
▁temper	-10.6853
good	-10.6866
▁Walt	-10.687
Ru	-10.6872
▁grade	-10.688
▁Cook	-10.6885
▁pursued	-10.6896
▁oppos	-10.6896
▁associates	-10.69
▁discovery	-10.6901
▁removed	-10.6914
▁Lake	-10.6918
▁Lal	-10.6918
▁Moe	-10.6919
▁bike	-10.692
walk	-10.6935
▁exploit	-10.6939
▁Stooges	-10.694
▁aggressive	-10.694
▁apprehend	-10.694
▁cocaine	-10.694
▁festival	-10.694
▁sergeant	-10.694
▁flood	-10.694
▁steam	-10.694
▁Kathy	-10.694
▁harsh	-10.694
▁Sherman	-10.694
tending	-10.694
▁Italy	-10.694
▁decade	-10.694
▁Gilbert	-10.6941
▁punishment	-10.6941
▁transferred	-10.6941
▁Chandler	-10.6941
▁abruptly	-10.6943
▁Foster	-10.6943
▁convention	-10.6945
▁chest	-10.6947
▁shower	-10.695
▁cheat	-10.695
▁testify	-10.6957
get	-10.6963
▁Dee	-10.6965
play	-10.6973
▁Other	-10.6975
▁rec	-10.6989
▁operate	-10.7006
▁Ari	-10.7011
▁frequent	-10.7034
Sam	-10.7035
▁Jess	-10.7036
[4]	-10.7043
▁opponent	-10.7056
▁Central	-10.7056
▁Thakur	-10.7056
▁Chloe	-10.7056
▁asylum	-10.7056
▁miles	-10.7056
▁string	-10.7056
▁railway	-10.7057
▁Justice	-10.7058
▁consum	-10.706
▁Nolan	-10.706
▁chosen	-10.7062
▁Freddy	-10.7066
▁Chad	-10.7072
Raj	-10.7073
▁hatch	-10.708
▁humiliated	-10.7082
▁Glenda	-10.7084
▁Star	-10.7094
▁suffered	-10.7095
▁designer	-10.7101
▁created	-10.711
▁Ling	-10.7115
▁concerns	-10.7116
▁entertain	-10.7127
▁25	-10.7135
▁row	-10.7137
▁soft	-10.7142
▁attracts	-10.7144
mma	-10.7153
▁Jon	-10.7157
▁emotion	-10.7162
rop	-10.7164
▁finished	-10.7167
▁mus	-10.7169
▁civil	-10.7171
▁ruined	-10.7172
▁intent	-10.7173
▁Shakespeare	-10.7173
▁benefit	-10.7173
▁despair	-10.7173
▁intercept	-10.7173
▁liquor	-10.7173
▁museum	-10.7173
▁quarter	-10.7173
▁royal	-10.7173
▁screams	-10.7173
▁succumb	-10.7173
▁suitcase	-10.7173
▁National	-10.7173
▁cadet	-10.7173
▁source	-10.7174
▁Krane	-10.7174
▁daily	-10.7174
▁stall	-10.7174
▁color	-10.7174
▁Cheryl	-10.7174
cient	-10.7175
▁operator	-10.7175
▁console	-10.7175
▁rude	-10.7175
▁massive	-10.7176
▁spell	-10.7178
▁pond	-10.7179
▁Elmer	-10.718
▁villain	-10.7181
▁rope	-10.7181
▁slight	-10.7183
▁plantation	-10.7186
▁wheel	-10.7188
▁Four	-10.7193
▁Belle	-10.7193
▁Bernard	-10.7194
▁agreed	-10.7198
▁Ronald	-10.7204
nick	-10.7207
▁west	-10.7208
▁Tank	-10.7216
▁Ira	-10.7226
making	-10.723
▁mouth	-10.723
face	-10.7236
▁refuge	-10.7237
Don	-10.7238
▁propose	-10.7253
▁banker	-10.7255
▁classes	-10.7256
▁signed	-10.7256
appa	-10.7261
▁possibl	-10.7271
▁detail	-10.7282
▁recovering	-10.7288
▁suspected	-10.729
▁Ultimately	-10.7292
▁conference	-10.7292
▁fantasy	-10.7292
▁testimony	-10.7292
▁tragedy	-10.7292
▁Katherine	-10.7292
▁milk	-10.7292
▁charity	-10.7293
▁shotgun	-10.7293
▁Amanda	-10.7293
▁scholarship	-10.7293
▁Slim	-10.7293
▁Allison	-10.7294
▁burns	-10.7294
▁virginity	-10.7294
▁Carolyn	-10.7295
▁Ashley	-10.7295
▁rough	-10.7296
Alan	-10.73
▁Honey	-10.7301
▁travelling	-10.7304
▁robbed	-10.7314
▁Kin	-10.732
▁Veer	-10.7325
Edward	-10.733
▁Princess	-10.7331
▁supposedly	-10.7341
▁Well	-10.7341
▁considered	-10.7345
away	-10.7362
▁connect	-10.7365
▁damaged	-10.7366
pped	-10.7367
Cha	-10.7372
▁dim	-10.7382
▁whil	-10.7392
▁passionate	-10.7394
rum	-10.74
500	-10.7407
▁Aubrey	-10.7413
▁Esteban	-10.7413
▁bottom	-10.7413
▁crazy	-10.7413
▁infidelity	-10.7413
▁license	-10.7413
▁sponsor	-10.7413
▁draft	-10.7413
▁Hotel	-10.7413
▁Otto	-10.7413
▁network	-10.7413
▁Everyone	-10.7413
creating	-10.7414
cla	-10.7415
▁Angus	-10.7417
▁consent	-10.7418
▁Kel	-10.7423
▁nobody	-10.7424
upon	-10.7428
▁Phyllis	-10.743
▁examine	-10.743
▁ward	-10.743
▁fatally	-10.7437
▁noble	-10.7439
▁Donna	-10.7439
▁Dante	-10.744
▁shoulder	-10.7443
▁quietly	-10.7454
burn	-10.7461
▁directly	-10.7467
▁feed	-10.747
gged	-10.7472
▁Kent	-10.7486
Man	-10.7487
▁believed	-10.7492
▁harass	-10.7493
Bo	-10.7494
▁persuaded	-10.7501
term	-10.7506
lent	-10.7523
▁jewels	-10.7527
▁quest	-10.7529
▁plead	-10.7534
Deborah	-10.7535
▁Ambrose	-10.7535
▁Scotland	-10.7535
▁Veronica	-10.7535
▁disapprove	-10.7535
▁elaborate	-10.7535
▁episode	-10.7535
▁explosive	-10.7535
▁lecture	-10.7535
▁Church	-10.7535
▁Knowing	-10.7535
▁gossip	-10.7535
▁Next	-10.7535
▁Drake	-10.7535
▁Hassan	-10.7535
▁tragic	-10.7535
▁sharing	-10.7535
▁lodge	-10.7535
▁excuse	-10.7535
▁opposite	-10.7536
▁distress	-10.7536
▁legend	-10.7536
▁Rodney	-10.7536
▁trace	-10.7537
▁Gail	-10.7538
▁admitting	-10.7538
▁Rosie	-10.7539
▁wire	-10.7539
▁Buster	-10.754
▁housekeeper	-10.7543
▁Carson	-10.7552
▁Shir	-10.7553
▁Ajay	-10.7556
▁Stuart	-10.7557
▁lab	-10.7559
▁recalls	-10.7575
tim	-10.7577
▁Oz	-10.7581
▁replaced	-10.7582
▁meant	-10.7586
▁mostly	-10.7588
▁carried	-10.7598
▁Elle	-10.7598
▁consequences	-10.7604
▁announc	-10.7612
▁forgotten	-10.7614
▁annoy	-10.7617
till	-10.7622
▁Gro	-10.7622
cus	-10.7626
▁invent	-10.7627
▁Bridge	-10.7641
▁Port	-10.7643
▁Kam	-10.7644
▁Carla	-10.7644
▁differences	-10.7646
ried	-10.7652
▁anniversary	-10.7658
▁crisis	-10.7658
▁lesbian	-10.7658
▁ruthless	-10.7658
▁Lenny	-10.7658
▁consult	-10.7658
▁organization	-10.7659
▁intimate	-10.7659
▁felt	-10.7659
▁march	-10.7659
▁Countess	-10.7659
▁Greek	-10.7659
ologist	-10.766
▁Ferris	-10.7661
▁cake	-10.7664
▁tie	-10.7664
▁Sandra	-10.7668
▁Louie	-10.767
▁inmates	-10.7674
▁Wall	-10.7677
▁stable	-10.7677
▁March	-10.7701
front	-10.7702
weight	-10.7704
▁scare	-10.7704
▁Monte	-10.7712
10	-10.772
hire	-10.7735
.[5]	-10.7746
▁scared	-10.775
▁injure	-10.7754
▁convict	-10.776
▁Stevens	-10.7761
▁laughing	-10.7765
▁airplane	-10.7783
▁chagrin	-10.7783
▁cottage	-10.7783
▁siblings	-10.7783
▁Anjali	-10.7783
▁Libby	-10.7783
▁Melanie	-10.7783
▁troupe	-10.7783
▁twist	-10.7783
▁Bruno	-10.7783
▁Maisie	-10.7783
▁changing	-10.7783
▁annual	-10.7784
▁devise	-10.7784
▁Command	-10.7784
ayya	-10.7784
▁pulled	-10.7785
▁Corky	-10.7785
hill	-10.7785
▁entry	-10.7786
▁replacement	-10.7788
▁cage	-10.7788
▁witnessed	-10.7788
▁jewel	-10.7789
▁wave	-10.779
▁Clay	-10.7793
▁fence	-10.7794
▁lion	-10.7808
▁pleased	-10.7808
▁suffer	-10.7815
▁rip	-10.7816
ison	-10.7819
girl	-10.7823
girlfriend	-10.7827
▁drawing	-10.7831
▁ignor	-10.7835
▁pot	-10.7836
▁critical	-10.7857
had	-10.7867
▁alley	-10.7869
▁reject	-10.7876
-1	-10.7891
▁assume	-10.7893
tar	-10.7894
▁Ang	-10.7903
▁convent	-10.7904
▁Pakistan	-10.791
▁brothel	-10.791
▁wheelchair	-10.791
▁Believ	-10.791
▁Desperate	-10.791
▁complex	-10.791
▁exhaust	-10.791
▁stairs	-10.791
▁Rosemary	-10.791
▁mount	-10.791
▁praise	-10.791
▁relents	-10.791
▁disappearance	-10.7911
▁Among	-10.7912
▁Archer	-10.7913
▁fancy	-10.7913
▁basic	-10.7913
▁retirement	-10.7914
▁swing	-10.7914
▁Down	-10.7917
▁Hindu	-10.7922
▁impression	-10.7923
Ben	-10.7929
▁Paco	-10.7931
▁lap	-10.7937
▁methods	-10.7937
▁finishes	-10.7943
▁Wild	-10.7943
▁belongings	-10.7946
▁annoyed	-10.7953
including	-10.7955
husband	-10.7955
Steve	-10.7956
▁flirts	-10.7958
▁bombing	-10.798
▁berate	-10.7986
▁profession	-10.7988
▁disgust	-10.7996
▁Jaha	-10.8005
▁focuse	-10.8011
▁accomplish	-10.8038
▁ambush	-10.8038
▁deception	-10.8038
▁emergency	-10.8038
▁length	-10.8038
▁mirror	-10.8038
▁unfortunate	-10.8038
▁unusual	-10.8038
▁worry	-10.8038
▁error	-10.8038
▁pawn	-10.8038
▁scout	-10.8038
▁Appa	-10.8038
▁therapy	-10.8039
▁interfere	-10.8039
▁Hammond	-10.8039
▁ruse	-10.8041
▁Laurie	-10.8041
▁motor	-10.8042
▁resistance	-10.8042
▁Casper	-10.8043
▁development	-10.8044
▁seize	-10.8045
▁shopping	-10.8045
▁nuns	-10.8045
▁popularity	-10.8046
▁Ruby	-10.805
▁insane	-10.8053
▁collapse	-10.8057
▁cup	-10.8061
▁movement	-10.8063
▁moon	-10.8069
▁Bun	-10.8074
where	-10.8076
▁angel	-10.8084
Kevin	-10.8085
awa	-10.8086
▁coma	-10.8089
▁questioning	-10.811
▁Afterward	-10.811
▁Dig	-10.8116
▁developed	-10.8134
▁inspire	-10.8138
▁Lane	-10.8153
▁virgin	-10.8166
ization	-10.8166
▁recount	-10.8168
▁Crystal	-10.8168
▁Detective	-10.8168
▁remorse	-10.8168
▁pride	-10.8168
▁Axel	-10.8168
▁groom	-10.8168
▁adapt	-10.8168
▁Jews	-10.8168
▁$10,000	-10.8169
▁Georgia	-10.8169
▁Sgt	-10.8169
▁Madhav	-10.8169
▁suite	-10.8169
▁Leigh	-10.8169
▁developing	-10.8182
▁whatever	-10.8182
▁instructor	-10.8183
▁sword	-10.8183
▁Porter	-10.8189
▁Dam	-10.8191
▁Trent	-10.8191
▁undergo	-10.8198
▁disgusted	-10.8211
▁Lyn	-10.8213
▁fourth	-10.8214
▁shared	-10.8221
▁originally	-10.8229
▁imagine	-10.8231
fight	-10.8232
▁Ph	-10.8238
▁prop	-10.8239
▁served	-10.8242
▁strongly	-10.8244
▁dismiss	-10.8246
El	-10.8256
50	-10.827
To	-10.827
▁organize	-10.827
chand	-10.8275
▁Rad	-10.8281
▁Canadian	-10.83
▁Murugan	-10.83
▁Unbeknown	-10.83
▁acquainted	-10.83
▁attached	-10.83
▁celebrating	-10.83
▁continuing	-10.83
▁guitar	-10.83
▁homosexual	-10.83
▁unemployed	-10.83
▁Ireland	-10.83
▁Celia	-10.83
▁disabled	-10.83
▁fuel	-10.83
▁Speed	-10.83
▁Blair	-10.83
▁[	-10.8301
▁sometimes	-10.8301
▁scheduled	-10.8323
neath	-10.8325
▁promoted	-10.8328
▁skip	-10.8334
▁Lauren	-10.8339
▁Boo	-10.8341
▁dresses	-10.8343
Jean	-10.835
Herbert	-10.8354
▁Devi	-10.8356
▁prepared	-10.8359
▁Dal	-10.8366
▁Time	-10.8371
▁doll	-10.8377
leigh	-10.8389
▁prince	-10.8401
▁humiliate	-10.8403
▁auction	-10.8403
cross	-10.8405
▁subsequent	-10.8411
▁trail	-10.8412
▁talented	-10.842
▁respective	-10.8423
▁bomber	-10.8424
▁chauffeur	-10.8433
▁feud	-10.8433
▁function	-10.8433
▁horrified	-10.8433
▁stuff	-10.8433
▁surviving	-10.8433
▁miserable	-10.8433
▁notorious	-10.8433
Brien	-10.8433
▁hint	-10.8433
▁poker	-10.8433
▁intense	-10.8433
▁Western	-10.8433
▁Boston	-10.8434
lal	-10.8436
▁investment	-10.8437
▁clock	-10.8438
▁Marvin	-10.8439
▁Lulu	-10.8439
▁Guard	-10.8447
▁cry	-10.8448
▁highway	-10.845
▁summoned	-10.8451
▁required	-10.8457
▁policemen	-10.8473
▁confident	-10.8475
▁skin	-10.8488
▁published	-10.8492
▁refugee	-10.8495
Fred	-10.8496
▁youngest	-10.8504
▁Marion	-10.8508
▁tax	-10.8516
▁betray	-10.8518
▁repeat	-10.8526
▁weight	-10.854
▁obvious	-10.8546
▁particular	-10.8546
▁Griff	-10.8557
▁Broadway	-10.8568
▁KGB	-10.8568
▁Suzanne	-10.8568
▁Virgil	-10.8568
▁behaviour	-10.8568
▁century	-10.8568
▁condemn	-10.8568
▁obsession	-10.8568
▁positive	-10.8568
▁protagonist	-10.8568
▁typical	-10.8568
▁Jerome	-10.8568
▁Together	-10.8568
▁revelation	-10.8568
▁enroll	-10.8568
▁Deuce	-10.8568
▁parole	-10.8568
▁Ashok	-10.8568
▁amends	-10.8568
▁Prasad	-10.8568
▁Duncan	-10.8569
▁adjust	-10.8569
▁Stacy	-10.8571
▁option	-10.8571
occupied	-10.8571
▁Brand	-10.8571
▁torment	-10.8573
▁Kal	-10.8578
▁countryside	-10.858
▁equally	-10.858
▁European	-10.8584
▁faced	-10.8584
▁reported	-10.859
▁listening	-10.8592
▁surrounded	-10.8594
▁curse	-10.8597
▁Hunter	-10.8598
▁print	-10.8604
▁weapon	-10.8609
▁resident	-10.8609
▁located	-10.861
mistakenly	-10.8612
Brian	-10.8622
▁Crow	-10.8623
▁accepting	-10.8639
▁rig	-10.8642
▁dam	-10.8644
▁cope	-10.865
▁Sach	-10.8658
▁strain	-10.8663
▁delight	-10.8673
hara	-10.868
▁bull	-10.8682
▁ideal	-10.8688
▁organ	-10.8694
haps	-10.8694
▁slow	-10.8702
▁Lock	-10.8705
▁harbor	-10.8705
▁August	-10.8705
▁Hawk	-10.8705
▁Initially	-10.8705
▁Kansas	-10.8705
▁Lydia	-10.8705
▁approval	-10.8705
▁discharge	-10.8705
▁intelligent	-10.8705
▁rehearsal	-10.8705
▁submarine	-10.8705
▁lavish	-10.8705
▁taught	-10.8705
▁Madeline	-10.8705
▁captive	-10.8705
▁grateful	-10.8705
▁Brooke	-10.8705
▁Pierre	-10.8705
probably	-10.8705
▁Madison	-10.8706
▁purse	-10.8706
▁committee	-10.8707
▁Gauri	-10.8707
▁cafe	-10.8708
▁charming	-10.8709
▁invade	-10.871
▁desk	-10.871
▁Terri	-10.871
▁guardian	-10.8712
▁192	-10.8713
▁lend	-10.8717
▁management	-10.8718
▁agreement	-10.872
▁spin	-10.8729
hl	-10.873
▁warden	-10.873
▁disappeared	-10.8733
▁noise	-10.8733
▁princess	-10.8738
▁Hardy	-10.8739
keeper	-10.8749
ttie	-10.8752
▁Vo	-10.8754
after	-10.8757
▁Kir	-10.8757
▁demonstrate	-10.8759
brother	-10.8761
▁Gre	-10.8766
aire	-10.8771
▁Mont	-10.8777
▁Lot	-10.878
hee	-10.8781
eva	-10.879
▁financially	-10.8791
ridden	-10.8791
▁promote	-10.8795
▁waiter	-10.88
Ki	-10.8803
▁tradition	-10.8816
▁custom	-10.8821
▁Only	-10.8823
fel	-10.8835
▁provided	-10.8836
▁poet	-10.8842
▁arrogant	-10.8844
▁preparation	-10.8844
▁stranded	-10.8844
▁Sanjana	-10.8844
▁Spanish	-10.8844
▁silence	-10.8844
▁Naomi	-10.8844
▁drill	-10.8844
▁region	-10.8844
▁stalk	-10.8844
▁junk	-10.8845
▁Butch	-10.8845
▁Tully	-10.8846
▁Keller	-10.8846
▁Brooks	-10.8846
▁jewelry	-10.8847
▁loyalty	-10.8848
▁playboy	-10.885
▁spring	-10.885
▁Robinson	-10.8852
▁commitment	-10.8852
▁Six	-10.8853
▁passage	-10.8854
ology	-10.8854
cluded	-10.8856
▁Basil	-10.8857
▁antics	-10.8857
▁Home	-10.8857
▁selfish	-10.8859
▁executed	-10.886
stead	-10.8862
▁Fac	-10.8868
▁chat	-10.8882
▁Burt	-10.889
▁Neal	-10.8891
▁mass	-10.8903
▁hunter	-10.8905
pla	-10.8915
Emil	-10.8915
handed	-10.8919
nut	-10.892
turn	-10.892
Dan	-10.8922
▁flirting	-10.8926
Go	-10.8934
▁Lau	-10.8941
▁approaching	-10.8945
▁nation	-10.8946
▁employ	-10.8948
▁Mikey	-10.8978
▁opened	-10.8983
▁Badshah	-10.8985
▁Jacques	-10.8985
▁Murphy	-10.8985
▁Reverend	-10.8985
▁bartender	-10.8985
▁bicycle	-10.8985
▁bodyguard	-10.8985
▁conclusion	-10.8985
▁independent	-10.8985
▁investigator	-10.8985
▁possibility	-10.8985
▁railroad	-10.8985
▁smuggling	-10.8985
▁vicious	-10.8985
▁Bennett	-10.8985
▁worst	-10.8985
▁Nigel	-10.8985
▁anxious	-10.8985
▁scold	-10.8985
▁cheap	-10.8985
▁spark	-10.8985
▁depend	-10.8985
▁terminal	-10.8985
▁mourn	-10.8985
▁Clarence	-10.8985
▁$50,000	-10.8985
▁venture	-10.8986
▁Think	-10.8986
▁admitted	-10.8988
▁Ethan	-10.8988
▁Barney	-10.8988
▁Amber	-10.8991
▁items	-10.8992
▁comfortable	-10.8993
▁settlement	-10.8994
▁demon	-10.8997
▁rub	-10.9002
▁Drew	-10.9002
▁Part	-10.9004
▁Dude	-10.9005
▁crooked	-10.901
▁Dog	-10.901
▁accus	-10.9012
▁Lil	-10.9028
Walter	-10.9044
▁Capt	-10.9054
▁fee	-10.9055
▁50	-10.9067
▁admir	-10.907
▁disturb	-10.9085
Anne	-10.9096
▁dish	-10.9104
jack	-10.9114
▁south	-10.9122
▁jumping	-10.9128
▁Sullivan	-10.9128
▁according	-10.9128
▁fraternity	-10.9128
▁prestigious	-10.9128
▁trauma	-10.9128
▁Baxter	-10.9128
▁carnival	-10.9128
▁device	-10.9128
▁revive	-10.9128
▁shore	-10.9128
▁giant	-10.9128
▁heiress	-10.9128
▁instructions	-10.9128
▁float	-10.9128
▁plate	-10.9128
▁civilian	-10.913
▁Throughout	-10.9131
▁Tal	-10.9134
▁Annabel	-10.9134
▁Gopi	-10.9135
▁betrayal	-10.9138
▁Woo	-10.9138
put	-10.9152
▁donate	-10.9155
▁Bron	-10.9156
▁barge	-10.9158
▁Hy	-10.9163
▁winter	-10.9165
▁Liv	-10.9169
▁Marian	-10.9174
ternal	-10.9177
▁Elliott	-10.9181
▁angered	-10.9181
▁Hyde	-10.9191
▁Kenneth	-10.9193
▁Ramu	-10.9194
▁Yi	-10.9197
▁page	-10.9219
▁nose	-10.9221
gam	-10.9224
▁covered	-10.9232
▁primar	-10.9234
ntly	-10.9244
▁smuggle	-10.9244
▁disc	-10.9246
▁hug	-10.9271
▁Mahoney	-10.9273
▁Melissa	-10.9273
▁Principal	-10.9273
▁Saravanan	-10.9273
▁conscience	-10.9273
▁exclusive	-10.9273
▁jungle	-10.9273
▁necessary	-10.9273
▁politics	-10.9273
▁uncomfortable	-10.9273
▁burglar	-10.9273
▁cinema	-10.9273
▁Robbie	-10.9273
▁deduce	-10.9273
stricken	-10.9273
▁swear	-10.9273
▁Alfie	-10.9273
▁surface	-10.9273
▁deaf	-10.9273
▁expelled	-10.9273
▁nightmare	-10.9273
▁Webb	-10.9274
▁Sweet	-10.9274
▁departure	-10.9274
▁subdue	-10.9274
▁Middle	-10.9274
▁appointment	-10.9275
▁Sunny	-10.9275
▁verge	-10.9277
▁rally	-10.9279
▁corruption	-10.9285
▁tower	-10.9291
▁Joel	-10.9292
▁Megan	-10.9295
▁catching	-10.9295
▁Grey	-10.9296
▁haunted	-10.9303
▁Duff	-10.9306
▁Prime	-10.9311
than	-10.933
[2]	-10.934
Hara	-10.9344
▁Baba	-10.9344
▁inherited	-10.9345
erior	-10.9352
▁Book	-10.9376
▁Jenn	-10.9389
▁torture	-10.9391
▁tire	-10.9392
▁era	-10.9393
▁deserted	-10.9409
sibly	-10.9412
Connor	-10.9413
▁Communist	-10.942
▁Lorenzo	-10.942
▁Pacific	-10.942
▁Teresa	-10.942
▁biological	-10.942
▁concoct	-10.942
▁distribut	-10.942
▁domestic	-10.942
▁library	-10.942
▁oblivious	-10.942
▁element	-10.942
▁Blanche	-10.942
▁Claudia	-10.942
▁Silver	-10.942
▁disclose	-10.942
▁Turner	-10.942
▁cream	-10.942
▁pimp	-10.942
▁evade	-10.942
▁Finch	-10.9421
▁example	-10.9421
▁inept	-10.9422
▁announcement	-10.9423
▁Howie	-10.9424
raw	-10.9424
▁petty	-10.9426
▁witch	-10.9427
▁visibl	-10.9428
Du	-10.9429
▁Donny	-10.9429
▁Norton	-10.9431
made	-10.9434
▁presumably	-10.9435
▁presented	-10.9438
atory	-10.944
▁Edna	-10.9448
▁fling	-10.945
▁Australian	-10.9453
▁nerd	-10.9458
▁Marco	-10.9464
writer	-10.9486
Harry	-10.9486
▁Fire	-10.9494
▁Fear	-10.9515
▁larger	-10.9523
▁assign	-10.9524
agon	-10.9535
▁Doo	-10.9544
▁permanent	-10.9547
▁drift	-10.955
▁studying	-10.9552
▁Vicki	-10.9553
arian	-10.9555
▁north	-10.9556
▁Act	-10.9558
▁trainer	-10.9559
▁construct	-10.9563
▁appreciate	-10.9564
▁experienced	-10.9566
▁Austria	-10.9569
▁Lincoln	-10.9569
▁Orleans	-10.9569
▁academy	-10.9569
▁disgrace	-10.9569
▁headquarters	-10.9569
▁luxury	-10.9569
▁practical	-10.9569
▁rebellious	-10.9569
▁Ghost	-10.9569
▁surf	-10.9569
▁denied	-10.9569
▁outraged	-10.9569
▁entirely	-10.957
▁snap	-10.957
▁$500	-10.957
▁Ernie	-10.957
▁ashamed	-10.957
▁duties	-10.957
▁link	-10.957
▁available	-10.9571
▁rare	-10.9571
▁joint	-10.9571
▁dominat	-10.9572
▁somewhere	-10.9575
▁dedicated	-10.9576
▁Carey	-10.9578
▁hospitalized	-10.9581
▁extended	-10.9587
▁Kha	-10.9587
▁Alexis	-10.9588
▁Mack	-10.9591
▁Lilly	-10.9596
▁smuggler	-10.9598
▁brutally	-10.9599
▁discussion	-10.96
▁deny	-10.96
▁assumed	-10.9604
▁Rip	-10.9613
▁Rai	-10.9626
▁Billie	-10.9632
▁hate	-10.9635
Alex	-10.9639
▁Becket	-10.9654
city	-10.9655
▁remark	-10.9662
Bob	-10.9665
▁Lori	-10.9674
dollar	-10.9678
▁pit	-10.9693
▁socially	-10.9699
mini	-10.9704
▁personally	-10.9707
▁Jenkins	-10.972
▁Kildare	-10.972
▁disapproval	-10.972
▁impossible	-10.972
▁lieutenant	-10.972
▁physician	-10.972
▁uncertain	-10.972
▁Amelia	-10.972
▁capital	-10.972
▁unfold	-10.972
▁alleged	-10.9721
▁dispose	-10.9721
▁Shannon	-10.9721
Constance	-10.9721
▁vain	-10.9721
▁wagon	-10.9721
▁Worm	-10.9722
spoken	-10.9723
▁passport	-10.9724
▁14	-10.9725
▁openly	-10.9725
▁questioned	-10.9725
▁Wright	-10.9726
▁Buzz	-10.9727
▁sake	-10.9727
unwittingly	-10.9728
▁Brandon	-10.9729
▁Ivy	-10.9729
ssuming	-10.973
▁attendant	-10.9738
▁Prakash	-10.9738
▁afterward	-10.974
bone	-10.9744
▁bandit	-10.9756
▁Sab	-10.9757
ility	-10.9766
▁strained	-10.9767
▁40	-10.9771
▁difficulty	-10.9782
▁prime	-10.9787
foot	-10.9792
▁Fay	-10.9794
▁dare	-10.9814
▁slum	-10.9823
▁manipulate	-10.9827
phy	-10.9839
▁fiance	-10.9847
hall	-10.9851
▁marit	-10.9856
▁Cuba	-10.9857
▁intend	-10.9857
tress	-10.9861
▁Vol	-10.9869
▁Nandini	-10.9874
▁Napoleon	-10.9874
▁Stifler	-10.9874
▁abroad	-10.9874
▁continually	-10.9874
▁facility	-10.9874
▁Fergus	-10.9874
▁disastrous	-10.9874
▁expense	-10.9874
▁Reuben	-10.9874
▁contrast	-10.9874
▁slept	-10.9874
▁repay	-10.9874
▁green	-10.9874
▁Sherry	-10.9875
▁Curly	-10.9875
▁Southern	-10.9875
▁overdose	-10.9875
▁tearfully	-10.9875
▁insistence	-10.9875
▁leap	-10.9876
▁Darren	-10.9878
▁bright	-10.9881
▁Anita	-10.9887
▁shattered	-10.9888
▁Sammy	-10.9888
▁cleaning	-10.989
▁Swan	-10.9891
▁statement	-10.9894
▁completed	-10.99
elf	-10.9903
▁County	-10.9907
▁Anton	-10.9912
▁load	-10.9915
▁cool	-10.9919
▁dismissed	-10.9924
▁mixed	-10.9933
▁abused	-10.9934
▁Bond	-10.9936
▁Thor	-10.9936
▁widower	-10.9943
▁declare	-10.9944
worthy	-10.9957
▁Dil	-10.9965
▁intervene	-10.9975
▁Alma	-10.9975
▁sport	-10.9985
▁infiltrate	-10.9993
▁bury	-10.9995
▁11	-10.9996
▁Bad	-10.9997
Shi	-10.9999
▁poorly	-11.0002
Shirley	-11.0004
▁settled	-11.0012
▁duel	-11.0018
load	-11.0026
▁Sinclair	-11.003
▁environment	-11.003
▁intrigue	-11.003
▁irritate	-11.003
▁overjoyed	-11.003
▁shadow	-11.003
▁Agatha	-11.0031
▁fault	-11.0031
▁landlady	-11.0031
▁Austin	-11.0031
▁Corinne	-11.0031
▁contempt	-11.0031
▁silver	-11.0031
▁reckless	-11.0031
▁Pamela	-11.0031
▁coffin	-11.0031
▁international	-11.0031
▁shirt	-11.0031
▁proving	-11.0031
▁Shekhar	-11.0031
▁blessing	-11.0031
▁Shyam	-11.0031
▁fruit	-11.0031
▁begun	-11.0031
▁unsure	-11.0031
▁representative	-11.0031
▁opposition	-11.0031
▁balloon	-11.0032
▁hatred	-11.0033
▁Hook	-11.0034
▁Spade	-11.0037
▁Ferr	-11.0038
▁Dink	-11.0038
empt	-11.0038
▁Wong	-11.0039
▁viewer	-11.0041
▁Krist	-11.0043
▁Palmer	-11.0044
▁provid	-11.0044
▁Shaw	-11.0049
▁Romeo	-11.005
▁Franklin	-11.0051
smith	-11.0054
▁confessing	-11.0055
assi	-11.0056
▁Alva	-11.0056
▁Hope	-11.0072
▁locker	-11.0073
▁painter	-11.0085
▁Ranga	-11.0113
bound	-11.0116
also	-11.012
▁jet	-11.0124
Chi	-11.0128
cidentally	-11.0129
rao	-11.0133
▁Shiva	-11.0134
▁Camp	-11.0138
▁recall	-11.0144
▁defeated	-11.0147
▁immediate	-11.0168
▁Pink	-11.017
▁Philadelphia	-11.0189
▁chamber	-11.0189
▁desperation	-11.0189
▁eldest	-11.0189
▁elevator	-11.0189
▁enemies	-11.0189
▁rebuffs	-11.0189
▁brilliant	-11.0189
▁luxuri	-11.0189
▁manufactur	-11.0189
▁negative	-11.0189
▁Frederick	-11.0189
▁Gracie	-11.0189
▁Ulysses	-11.0189
▁relief	-11.0189
▁Bailey	-11.0189
▁motion	-11.0189
▁Child	-11.0189
▁pound	-11.0189
▁nude	-11.019
▁disappointment	-11.019
▁jockey	-11.019
▁electro	-11.019
▁leak	-11.0191
▁skate	-11.0192
▁dropping	-11.0192
▁ego	-11.0193
▁difficulties	-11.0193
▁mining	-11.0194
▁invention	-11.0197
▁hideout	-11.0198
▁cries	-11.0198
▁Alvin	-11.0198
▁cutting	-11.02
▁tourist	-11.0201
▁Bradley	-11.0202
▁stopping	-11.0205
▁log	-11.0207
▁Christina	-11.0212
heel	-11.0213
▁Mimi	-11.0214
▁Maureen	-11.0214
▁Fort	-11.0218
▁spoiled	-11.0221
▁tortured	-11.0222
▁faithful	-11.0222
▁protection	-11.0224
▁Moss	-11.0225
▁employed	-11.0237
▁heroes	-11.024
▁recovery	-11.0241
luck	-11.026
Anthony	-11.0267
▁cleared	-11.0281
▁Durga	-11.0281
box	-11.0298
▁belonging	-11.0305
book	-11.0311
▁nickname	-11.0321
▁Mul	-11.0321
▁relate	-11.0321
▁shoe	-11.0343
▁100	-11.0345
▁Crawford	-11.0351
▁Hawaii	-11.0351
▁cemetery	-11.0351
▁generation	-11.0351
▁orchestra	-11.0351
▁overpower	-11.0351
▁recognise	-11.0351
▁rendezvous	-11.0351
▁ritual	-11.0351
▁symbol	-11.0351
Savitri	-11.0351
▁Zhang	-11.0351
▁Lonnie	-11.0351
▁Hoffman	-11.0351
▁branch	-11.0351
▁destruction	-11.0351
▁verbal	-11.0351
▁competing	-11.0351
▁interpret	-11.0351
▁Klein	-11.0351
▁Spain	-11.0351
▁Power	-11.0351
▁$100,000	-11.0351
▁install	-11.0351
▁Tilly	-11.0353
▁24	-11.0353
▁1950	-11.0355
▁Hillary	-11.0355
▁Marc	-11.0357
▁Korean	-11.0357
▁Knight	-11.0358
uinn	-11.0364
▁Cross	-11.0364
▁Nova	-11.0364
▁Rebecca	-11.0365
▁rivalry	-11.0366
▁Jenna	-11.037
▁Vickie	-11.0374
▁appointed	-11.0385
▁admirer	-11.0399
ambi	-11.0406
▁Arun	-11.0411
▁violently	-11.0414
▁fend	-11.0417
▁disco	-11.0426
▁bust	-11.0447
mother	-11.0454
Pat	-11.0469
rift	-11.0473
▁Reno	-11.0482
▁identifie	-11.0485
▁Forrest	-11.0495
▁resembl	-11.0499
▁please	-11.0502
▁cult	-11.0513
19	-11.0514
destruct	-11.0514
▁Natasha	-11.0514
▁bizarre	-11.0514
▁circle	-11.0514
▁narrowly	-11.0514
▁negotiate	-11.0514
▁retaliate	-11.0514
▁science	-11.0514
▁section	-11.0514
▁stroke	-11.0514
▁gunshot	-11.0514
▁policy	-11.0514
▁unstable	-11.0515
▁Samuel	-11.0515
▁dispute	-11.0515
▁henchman	-11.0515
▁Lassard	-11.0515
▁Dallas	-11.0515
▁amateur	-11.0515
▁prostitution	-11.0515
▁Esther	-11.0516
▁Sharp	-11.0516
▁Bunny	-11.0516
▁underground	-11.0517
▁documentary	-11.0518
▁destination	-11.0519
▁Elsa	-11.0519
▁stripper	-11.0519
▁Town	-11.052
▁drum	-11.052
▁Marianne	-11.052
▁Sharon	-11.052
▁Carmen	-11.0522
▁Delhi	-11.0524
▁Angie	-11.0526
▁suspended	-11.0533
▁peaceful	-11.0534
▁overnight	-11.0535
▁Gru	-11.0536
▁mall	-11.0551
▁embarrassing	-11.0553
▁Toby	-11.0559
▁performed	-11.0567
▁complet	-11.0571
▁communicate	-11.0577
▁granted	-11.0584
▁Haru	-11.0592
standing	-11.0595
naval	-11.0598
Helen	-11.0599
Rob	-11.0601
Gene	-11.0607
▁improv	-11.061
▁tricked	-11.0619
▁dumped	-11.0623
▁Shah	-11.0627
▁Ven	-11.064
▁began	-11.0662
▁How	-11.0665
Am	-11.0666
▁destin	-11.0678
▁Enraged	-11.0681
▁Frustrated	-11.0681
▁Special	-11.0681
▁compartment	-11.0681
▁creature	-11.0681
▁cynical	-11.0681
▁incompetent	-11.0681
▁nursing	-11.0681
▁triumph	-11.0681
▁Dawson	-11.0681
▁Nagiko	-11.0681
▁consciousness	-11.0681
▁degree	-11.0681
▁deposit	-11.0681
▁pupil	-11.0681
▁Harriet	-11.0681
▁biggest	-11.0681
▁invasion	-11.0681
▁shark	-11.0681
▁Ohio	-11.0681
▁lottery	-11.0681
witted	-11.0681
▁patch	-11.0681
▁Corps	-11.0682
▁Strike	-11.0682
▁Flash	-11.0683
▁assert	-11.0683
▁entertainment	-11.0685
▁Chong	-11.0686
▁authority	-11.0686
▁debut	-11.0687
▁courtroom	-11.0687
▁Doctor	-11.0687
sensitive	-11.0689
▁Annette	-11.069
enchant	-11.0692
Kay	-11.0696
▁Beach	-11.0696
▁Caine	-11.07
▁Thus	-11.0702
▁anonymous	-11.0704
▁ashes	-11.0707
▁semi	-11.0709
iddle	-11.071
▁declared	-11.0713
▁Agent	-11.0717
▁Sidney	-11.0718
▁survived	-11.0747
▁Jude	-11.0776
▁hitch	-11.0794
helm	-11.0801
wind	-11.0807
▁schedule	-11.0821
scale	-11.0825
ifying	-11.0825
▁referr	-11.0833
Kar	-11.0842
▁revolution	-11.0849
▁Regina	-11.085
▁Harvard	-11.0851
▁amusement	-11.0851
▁balcony	-11.0851
▁breast	-11.0851
▁cricket	-11.0851
▁screaming	-11.0851
▁therapist	-11.0851
▁voyage	-11.0851
▁worries	-11.0851
▁wrestling	-11.0851
▁Apollo	-11.0851
▁diploma	-11.0851
▁disagree	-11.0851
Loretta	-11.0851
▁Tokyo	-11.0851
▁Camille	-11.0851
▁unnamed	-11.0851
▁jazz	-11.0851
▁submit	-11.0851
▁Karthik	-11.0851
▁pleasure	-11.0851
▁hitchhike	-11.0851
▁serial	-11.0851
uincy	-11.0851
▁Castle	-11.0851
▁absent	-11.0851
▁behave	-11.0851
▁missile	-11.0851
eject	-11.0851
▁poem	-11.0851
▁lord	-11.0851
▁Fisher	-11.0851
▁granddaughter	-11.0851
▁stepfather	-11.0851
▁Venice	-11.0851
▁Antonio	-11.0851
▁Elvis	-11.0851
▁forbid	-11.0852
▁proclaims	-11.0853
▁Ramsey	-11.0854
▁Ganga	-11.0854
▁vice	-11.0856
▁medal	-11.0857
▁hung	-11.0859
▁disillusioned	-11.0859
cular	-11.0863
▁Kirk	-11.0863
▁pile	-11.0864
▁impersonate	-11.0864
▁dash	-11.0865
▁vent	-11.0867
▁appreciat	-11.0871
▁Much	-11.0874
▁Warner	-11.0879
▁Spencer	-11.088
▁ordinary	-11.0882
▁Pee	-11.0882
Marie	-11.0882
▁Satyam	-11.0898
▁committ	-11.0905
▁deck	-11.0908
▁complaint	-11.0912
▁assassinate	-11.092
aunt	-11.093
▁Paulie	-11.0944
child	-11.0945
arlene	-11.0946
Van	-11.0949
My	-11.0952
▁seal	-11.0962
▁Chen	-11.0976
▁191	-11.0977
▁Hand	-11.0998
▁volunteer	-11.1
▁coal	-11.1004
▁caste	-11.101
▁exact	-11.1014
▁realis	-11.1016
▁Egypt	-11.1021
▁multi	-11.1022
▁Ludwig	-11.1023
▁Nikhil	-11.1023
▁Private	-11.1023
▁colonel	-11.1023
▁envelope	-11.1023
▁provoke	-11.1023
▁skeptical	-11.1023
▁vampire	-11.1023
▁variety	-11.1023
▁chicken	-11.1023
▁council	-11.1023
▁reinstate	-11.1023
▁People	-11.1023
▁Apple	-11.1023
▁apology	-11.1023
▁Adele	-11.1023
▁loot	-11.1023
exposing	-11.1024
▁Rizzoli	-11.1024
▁revolutionary	-11.1025
▁income	-11.1026
▁Sometime	-11.1028
▁alter	-11.1029
ucci	-11.1029
▁toilet	-11.103
▁Chick	-11.103
▁Play	-11.103
▁Clive	-11.1033
▁tenant	-11.1033
▁meat	-11.1038
▁hopeless	-11.1038
▁progresses	-11.1047
▁Antony	-11.1047
▁respectively	-11.1051
▁collection	-11.1052
▁painful	-11.1052
▁identified	-11.1055
▁Gina	-11.1059
▁Cro	-11.1065
▁seduc	-11.1079
▁pill	-11.1081
▁Dot	-11.1083
▁dry	-11.1083
▁realized	-11.1087
▁Post	-11.1104
▁rear	-11.1114
point	-11.1115
mouth	-11.1115
Henry	-11.1115
call	-11.1124
▁decid	-11.1124
▁visitor	-11.1131
▁Rene	-11.1136
▁Gran	-11.1141
▁Desi	-11.115
▁Brady	-11.1155
▁congratulate	-11.1157
master	-11.1161
▁Russ	-11.1166
▁crushed	-11.1177
▁Beatrice	-11.1198
▁Brennan	-11.1198
▁Rasputin	-11.1198
▁automobile	-11.1198
▁conservative	-11.1198
▁culprit	-11.1198
▁despondent	-11.1198
▁humiliation	-11.1198
▁limousine	-11.1198
▁parachute	-11.1198
▁sympathy	-11.1198
▁Atlantic	-11.1198
▁League	-11.1198
▁Zamindar	-11.1198
▁divide	-11.1198
▁relocate	-11.1198
▁surprising	-11.1198
▁Darryl	-11.1198
▁abilities	-11.1198
▁prominent	-11.1198
▁Betsy	-11.1198
▁Dixon	-11.1198
▁Izzy	-11.1199
▁Kabir	-11.1199
▁Tristan	-11.1199
▁complications	-11.1199
▁plain	-11.1199
▁Heaven	-11.1199
▁root	-11.1199
▁Sathya	-11.1199
▁Stein	-11.1199
▁Winston	-11.1199
▁reverse	-11.1199
▁inject	-11.1199
▁Falls	-11.12
▁mud	-11.12
▁Ethel	-11.12
▁mobile	-11.1201
▁taste	-11.1201
▁brave	-11.1201
eswara	-11.1202
▁Garfield	-11.1202
▁Saroj	-11.1203
▁Ellis	-11.1203
▁establishment	-11.1204
▁Chaney	-11.121
▁attendance	-11.1211
▁Snow	-11.1211
▁dirty	-11.1213
▁wise	-11.1215
▁pour	-11.1215
▁Waldo	-11.1216
▁unlikely	-11.1216
▁thrilled	-11.1218
▁Omar	-11.122
▁Pinky	-11.1222
▁Jody	-11.1224
▁embarrassed	-11.1226
▁Lionel	-11.1226
▁centr	-11.1226
▁impresse	-11.1234
▁Wilder	-11.1236
▁Lila	-11.1243
▁couldn	-11.1249
▁Lexi	-11.1253
▁Free	-11.1254
▁broker	-11.1264
▁Mia	-11.1272
▁Pope	-11.1286
Martin	-11.1297
▁unite	-11.1298
▁metal	-11.1302
▁Glenn	-11.1303
▁Herman	-11.1313
based	-11.1314
having	-11.132
dog	-11.1321
▁hanged	-11.1346
▁Hai	-11.1361
▁centre	-11.1366
▁nun	-11.137
▁counsel	-11.137
appropriate	-11.1377
▁Fortunately	-11.1377
▁McCabe	-11.1377
▁Nevertheless	-11.1377
▁Penelope	-11.1377
▁compromise	-11.1377
▁convenience	-11.1377
▁gesture	-11.1377
▁penniless	-11.1377
▁reappear	-11.1377
▁reassure	-11.1377
▁smooth	-11.1377
▁stomach	-11.1377
▁strangle	-11.1377
▁unknowingly	-11.1377
▁crippl	-11.1377
ification	-11.1377
▁Furious	-11.1377
▁tactic	-11.1377
▁Olga	-11.1377
▁conspire	-11.1377
▁Spike	-11.1377
▁carriage	-11.1377
▁Naidu	-11.1377
▁Sapna	-11.1377
▁assemble	-11.1377
▁swindle	-11.1377
▁salon	-11.1377
▁Desmond	-11.1377
▁stash	-11.1377
▁avenge	-11.1377
▁stunned	-11.1378
▁elsewhere	-11.1378
▁hustl	-11.1379
▁porn	-11.1379
▁Gregory	-11.1379
▁chef	-11.138
▁Suzy	-11.138
▁Left	-11.1382
▁Spring	-11.1383
▁Steel	-11.1383
▁partnership	-11.1384
▁mood	-11.1384
▁diagnosed	-11.1385
▁ditch	-11.1385
▁Wyn	-11.1387
▁Munna	-11.1389
▁relieved	-11.1392
▁wide	-11.1392
▁Burns	-11.1393
▁exception	-11.1394
▁hour	-11.1395
▁Eleanor	-11.1398
psycho	-11.1402
▁Wu	-11.1411
▁repeated	-11.1412
▁Bridget	-11.1423
▁Ava	-11.1424
Lee	-11.1434
Connell	-11.1437
▁Wei	-11.1452
▁borrowed	-11.1453
▁lit	-11.1467
▁sober	-11.1468
defense	-11.1475
Jennifer	-11.1476
boyfriend	-11.1476
school	-11.1476
phone	-11.1489
▁Petr	-11.15
▁privately	-11.1513
will	-11.1516
▁abduct	-11.1517
▁complicat	-11.1517
Mel	-11.153
Mari	-11.153
▁impersonat	-11.1544
▁cow	-11.1548
▁ignore	-11.1556
▁troop	-11.1557
▁Sundeep	-11.1559
▁blossom	-11.1559
▁concept	-11.1559
▁corporate	-11.1559
▁feign	-11.1559
▁inspiration	-11.1559
▁janitor	-11.1559
▁rekindle	-11.1559
▁unbeknown	-11.1559
▁Oxford	-11.1559
▁Rakesh	-11.1559
▁racial	-11.1559
▁Hilary	-11.1559
▁Ishaan	-11.1559
▁register	-11.1559
▁Henderson	-11.1559
▁discourage	-11.1559
▁Keaton	-11.1559
▁Rupert	-11.1559
▁Faith	-11.1559
▁Fuller	-11.1559
Katharine	-11.1559
▁injuring	-11.1559
▁restrain	-11.1559
▁Rohit	-11.1559
▁sharp	-11.1559
▁violat	-11.1559
▁sorry	-11.1559
▁knee	-11.1559
▁Lucas	-11.1559
▁prosper	-11.1559
▁managing	-11.1559
▁objections	-11.156
▁shape	-11.156
▁embarrassment	-11.1561
▁stern	-11.1561
▁Viola	-11.1561
▁scrap	-11.1563
▁Scout	-11.1565
▁foul	-11.1566
▁counselor	-11.1566
▁rejection	-11.1567
▁Life	-11.1568
▁contend	-11.1569
▁supervisor	-11.1571
▁lament	-11.1575
▁Renu	-11.1575
▁coward	-11.1577
▁implied	-11.1579
▁housewife	-11.158
▁Dino	-11.1588
▁Mandy	-11.159
▁frightened	-11.1594
▁gathering	-11.1601
▁proposed	-11.1605
▁Oak	-11.1605
▁Than	-11.1606
▁restored	-11.1609
▁Key	-11.1615
▁inventor	-11.1615
▁martial	-11.1617
Lou	-11.1619
▁sue	-11.1623
▁Nate	-11.1626
▁pity	-11.1626
▁cheated	-11.1626
▁Tip	-11.1632
Mad	-11.1637
▁temp	-11.1637
[1]	-11.1637
▁Andrea	-11.1637
Louis	-11.1649
Kenneth	-11.166
▁Most	-11.1665
▁encouraged	-11.1679
▁alienate	-11.1703
▁toast	-11.1711
▁zoo	-11.1715
▁Dolores	-11.1744
▁Irving	-11.1744
▁channel	-11.1744
▁comrade	-11.1744
▁excitement	-11.1744
▁expedition	-11.1744
▁identical	-11.1744
▁reconciliation	-11.1744
▁reconsider	-11.1744
▁retaliation	-11.1744
▁sorority	-11.1744
▁altercation	-11.1744
▁contribut	-11.1744
▁deputy	-11.1744
▁review	-11.1744
▁signature	-11.1744
▁erupt	-11.1744
▁breath	-11.1744
▁Dylan	-11.1744
▁Denny	-11.1744
▁text	-11.1744
▁Shelby	-11.1744
▁coerce	-11.1744
▁diary	-11.1744
▁Hawkins	-11.1745
▁backfires	-11.1745
▁$4	-11.1746
▁Sunday	-11.1746
Sanjay	-11.1746
▁Yang	-11.1748
▁Jeffries	-11.1749
kumar	-11.1751
▁gentleman	-11.1751
▁Panther	-11.1751
▁Find	-11.1751
▁Sonia	-11.1752
▁Mabel	-11.176
▁resemble	-11.1761
▁mishap	-11.1765
▁backyard	-11.1769
▁Devil	-11.1771
▁offended	-11.1777
▁poster	-11.178
▁Lois	-11.178
▁punished	-11.1784
[5]	-11.18
▁educated	-11.18
▁opposed	-11.1813
round	-11.1822
▁criticize	-11.1828
▁Row	-11.1832
▁End	-11.1839
▁connected	-11.184
▁Glen	-11.1842
Jason	-11.185
Jeff	-11.185
▁transformed	-11.185
▁kindly	-11.1851
▁Puri	-11.1866
▁tryst	-11.1869
looking	-11.1874
▁defect	-11.1875
Greg	-11.1877
Jim	-11.1892
suit	-11.1899
▁flag	-11.19
hurst	-11.1904
khi	-11.1905
▁stag	-11.1922
▁gentle	-11.1927
▁AIDS	-11.1933
▁Armstrong	-11.1933
▁Callahan	-11.1933
▁briefcase	-11.1933
▁column	-11.1933
▁fifteen	-11.1933
▁literally	-11.1933
▁psychiatric	-11.1933
▁ridicule	-11.1933
▁senator	-11.1933
▁significant	-11.1933
▁Alexandra	-11.1933
▁Reggie	-11.1933
▁Houston	-11.1933
▁Curley	-11.1933
▁hesitant	-11.1933
▁Gresham	-11.1933
▁crown	-11.1933
▁Nadia	-11.1933
▁aspect	-11.1933
▁stepmother	-11.1933
▁Unknown	-11.1934
▁random	-11.1934
▁Ashwin	-11.1934
▁midnight	-11.1934
▁baron	-11.1935
▁Bergen	-11.1935
▁Dooley	-11.1936
▁Preach	-11.1936
dolf	-11.1938
▁impact	-11.1939
▁Night	-11.1939
▁Barb	-11.1941
▁Harley	-11.1942
▁encouragement	-11.1944
▁$20	-11.1947
▁earth	-11.1948
▁getaway	-11.195
▁render	-11.195
▁Watt	-11.1952
▁realization	-11.1957
▁Step	-11.1961
▁Dolly	-11.1962
▁reconnect	-11.1964
▁Sheila	-11.1967
▁Gay	-11.1986
▁exile	-11.1989
▁sheep	-11.1989
▁hyp	-11.2003
▁related	-11.2016
▁size	-11.2016
▁ignored	-11.2027
▁Dani	-11.2039
Susan	-11.2051
Lan	-11.2056
▁flow	-11.2057
style	-11.2059
▁arch	-11.2068
▁Satya	-11.2072
▁ensue	-11.2073
▁Near	-11.2088
▁Chet	-11.2091
▁Russia	-11.2111
▁Secret	-11.2123
Kathleen	-11.2125
responsibilities	-11.2125
▁Celeste	-11.2125
▁Civil	-11.2125
▁epilogue	-11.2125
▁furniture	-11.2125
▁handcuff	-11.2125
▁impoverished	-11.2125
▁junior	-11.2125
▁manuscript	-11.2125
▁rebuild	-11.2125
▁temporary	-11.2125
▁Abbott	-11.2125
▁Gillespie	-11.2125
▁Nevada	-11.2125
▁gallery	-11.2125
▁gypsy	-11.2125
▁Davenport	-11.2125
▁underwear	-11.2125
▁Divya	-11.2125
▁Wilbur	-11.2125
▁caretaker	-11.2125
▁Sybil	-11.2125
▁blank	-11.2125
▁Dominic	-11.2125
▁cattle	-11.2125
▁Sharma	-11.2125
▁blast	-11.2125
▁tutor	-11.2125
▁hiring	-11.2125
▁pirate	-11.2125
▁Mount	-11.2126
▁Gemma	-11.2126
▁Dodd	-11.2126
▁Montana	-11.2126
▁Senator	-11.2127
▁reference	-11.2127
operative	-11.2127
▁bullies	-11.2127
▁aspire	-11.2127
▁Outside	-11.2128
▁Johann	-11.2129
▁Boris	-11.2129
▁Connors	-11.2129
▁parade	-11.2132
▁Shanti	-11.2132
▁Edgar	-11.2133
▁requires	-11.2135
▁kindness	-11.2135
▁investor	-11.2139
▁admires	-11.2141
aving	-11.2141
▁conductor	-11.2142
▁Doll	-11.2143
▁Shaun	-11.2143
▁difference	-11.2144
▁glasses	-11.215
▁nicknamed	-11.2161
▁Nei	-11.2163
elect	-11.2166
▁loaded	-11.2178
▁sand	-11.2191
▁tag	-11.2192
▁Allan	-11.2197
owner	-11.22
friend	-11.2207
▁prayer	-11.223
Stephen	-11.2238
love	-11.224
hini	-11.2249
Eric	-11.2267
▁punish	-11.2276
▁appoint	-11.2276
▁infect	-11.228
just	-11.2285
▁Resi	-11.2311
spirited	-11.2311
▁boot	-11.2316
qualified	-11.2321
▁Arriving	-11.2321
▁amnesia	-11.2321
▁café	-11.2321
▁celebrity	-11.2321
▁communist	-11.2321
▁declaring	-11.2321
▁demolish	-11.2321
▁discipline	-11.2321
▁dynamite	-11.2321
▁fugitive	-11.2321
▁humiliating	-11.2321
▁refusal	-11.2321
▁solution	-11.2321
▁striking	-11.2321
▁tattoo	-11.2321
▁traitor	-11.2321
▁Bernice	-11.2321
▁Brazil	-11.2321
▁Further	-11.2321
▁Lizzie	-11.2321
▁composer	-11.2321
▁Determine	-11.2321
▁Claudelle	-11.2321
▁Swiss	-11.2321
▁balance	-11.2321
▁Hopkins	-11.2321
▁pledge	-11.2321
▁Hudson	-11.2321
▁chronic	-11.2321
▁Coast	-11.2321
▁osten	-11.2321
▁haul	-11.2322
▁Venky	-11.2322
▁Maury	-11.2322
▁smart	-11.2322
▁ashore	-11.2322
▁Mama	-11.2323
▁1980	-11.2325
▁Fifi	-11.2326
▁classroom	-11.2327
▁babysit	-11.2328
▁Sadie	-11.2332
▁greedy	-11.2333
▁addiction	-11.2334
Fearless	-11.2337
uke	-11.2341
▁Carty	-11.2342
▁Weiss	-11.2346
▁Gates	-11.2347
▁Karan	-11.2351
▁sack	-11.2351
▁properly	-11.2367
▁apply	-11.2379
▁involve	-11.2385
Sunil	-11.2392
▁lucky	-11.2397
▁challenged	-11.2399
▁bench	-11.2399
▁officially	-11.2411
▁Moran	-11.2414
Dennis	-11.2438
Thomas	-11.2438
Carol	-11.2439
aux	-11.2475
▁pushed	-11.2508
fro	-11.2511
Mr	-11.2518
▁permit	-11.252
▁Cleopatra	-11.2521
▁Depression	-11.2521
▁McKinney	-11.2521
▁correspond	-11.2521
▁exercise	-11.2521
▁garbage	-11.2521
▁grocery	-11.2521
▁psychological	-11.2521
▁satisfied	-11.2521
▁swallow	-11.2521
▁terrified	-11.2521
▁vessel	-11.2521
principle	-11.2521
▁Pushpa	-11.2521
▁Webster	-11.2521
▁carefree	-11.2521
▁Patterson	-11.2521
▁salary	-11.2521
▁Vitti	-11.2521
▁radical	-11.2521
▁devil	-11.2521
▁Sissy	-11.2521
▁boost	-11.2521
▁Wanda	-11.2521
▁nerve	-11.2521
▁Meera	-11.2522
▁Aggie	-11.2522
Mukesh	-11.2522
▁Cassie	-11.2522
▁communication	-11.2523
▁Nathan	-11.2524
▁plus	-11.2525
▁Payne	-11.2525
▁occurred	-11.2525
▁sensation	-11.2525
▁antique	-11.2525
▁pants	-11.2526
▁booth	-11.2527
▁spill	-11.2527
▁Seetha	-11.2528
▁Bengal	-11.2529
▁flip	-11.2529
▁Everett	-11.253
▁Michele	-11.2531
▁fever	-11.2532
▁buddy	-11.2536
▁Hanson	-11.2536
▁ballet	-11.2539
▁Shame	-11.254
▁fled	-11.2541
▁chip	-11.2541
▁bigger	-11.2542
▁Sunder	-11.2543
▁Fang	-11.2544
▁Cher	-11.2547
▁infuriated	-11.2551
▁passionately	-11.2558
▁decline	-11.2558
50,000	-11.2559
▁Dutt	-11.2561
▁pig	-11.2565
ware	-11.2578
▁falsely	-11.2587
▁Lew	-11.2591
▁whenever	-11.2594
▁Pang	-11.2608
Margaret	-11.2642
Tony	-11.2645
▁cleaner	-11.265
Neil	-11.2655
Will	-11.2659
▁villa	-11.2675
▁tri	-11.268
▁haunt	-11.2683
▁tease	-11.269
▁Lili	-11.2695
▁journal	-11.2699
▁culminate	-11.2711
▁favour	-11.2724
lakshmi	-11.2725
▁Buchek	-11.2725
▁Jasmine	-11.2725
▁Marguerite	-11.2725
▁Strickland	-11.2725
▁Switzerland	-11.2725
▁Turkish	-11.2725
▁activity	-11.2725
▁bracelet	-11.2725
▁cheerleader	-11.2725
▁illegitimate	-11.2725
▁prosecutor	-11.2725
▁reciprocate	-11.2725
▁stubborn	-11.2725
▁Flynn	-11.2725
▁picnic	-11.2725
▁Battle	-11.2725
▁Rigby	-11.2725
▁reserve	-11.2725
▁weather	-11.2725
▁jacket	-11.2725
▁coax	-11.2725
▁stabbed	-11.2725
▁housing	-11.2725
▁intellectual	-11.2725
▁mortal	-11.2725
▁Padma	-11.2725
▁Hermie	-11.2725
▁Lyle	-11.2725
▁Abdul	-11.2725
▁cowboy	-11.2726
▁outfit	-11.2726
▁lawsuit	-11.2726
▁Learn	-11.2727
▁dining	-11.2727
▁alcoholism	-11.2728
▁wooden	-11.273
▁Neena	-11.273
▁Havana	-11.273
▁accusation	-11.2731
▁Film	-11.2737
▁Champ	-11.2737
▁shootout	-11.2738
▁Neha	-11.2739
▁nominat	-11.2741
▁Golden	-11.2743
▁Hop	-11.2745
▁Nanda	-11.2751
▁egg	-11.2752
▁Janie	-11.2752
▁launches	-11.2754
▁permanently	-11.2755
Ray	-11.2757
Berry	-11.2757
▁Thorne	-11.2765
▁Tex	-11.2767
▁remov	-11.2769
▁emerge	-11.2773
▁organized	-11.2773
▁framed	-11.2783
acious	-11.2789
▁Finn	-11.2791
itive	-11.2802
▁Tara	-11.2806
▁cargo	-11.2819
▁$5	-11.2838
▁Bharat	-11.2842
Barbara	-11.285
Eddie	-11.285
father	-11.2863
▁recogniz	-11.2881
member	-11.2904
▁Rain	-11.2912
Kris	-11.2924
uzz	-11.2928
conscious	-11.2929
▁interact	-11.2932
▁avail	-11.2932
▁Mercedes	-11.2934
▁Vishnu	-11.2934
▁conspiracy	-11.2934
▁glamorous	-11.2934
▁importance	-11.2934
▁miracle	-11.2934
▁racist	-11.2934
▁religion	-11.2934
▁substitute	-11.2934
▁triangle	-11.2934
▁Congress	-11.2934
▁Montreal	-11.2934
▁chemical	-11.2934
▁fierce	-11.2934
▁masquerad	-11.2934
▁snatch	-11.2934
▁IRA	-11.2934
▁despise	-11.2934
▁Hitler	-11.2934
▁bargain	-11.2934
▁glad	-11.2934
▁wrath	-11.2934
▁bullied	-11.2934
▁parish	-11.2934
▁Christie	-11.2934
▁reign	-11.2934
▁hail	-11.2934
▁boil	-11.2934
▁inviting	-11.2934
▁Courtney	-11.2936
▁$1,000	-11.2936
▁intentionally	-11.2937
▁pageant	-11.2937
▁runaway	-11.2939
▁clip	-11.2941
▁tight	-11.2941
▁Powell	-11.2941
▁disappear	-11.2942
▁Shad	-11.2944
▁Satan	-11.2945
▁Coach	-11.2946
▁Hatch	-11.2946
▁Kol	-11.2946
▁acceptance	-11.2946
▁Logan	-11.2948
▁Surya	-11.295
▁Hugo	-11.295
▁Khanna	-11.2951
▁Papa	-11.2952
▁pier	-11.2954
reby	-11.2957
▁Forrester	-11.2959
▁Dove	-11.2962
▁thwarted	-11.2975
▁abducted	-11.2982
▁Dunne	-11.299
▁crosses	-11.3004
▁harassed	-11.3006
▁roller	-11.301
▁Side	-11.3043
known	-11.3059
Daniel	-11.3063
▁blam	-11.3071
rative	-11.3077
▁sham	-11.3092
▁thwart	-11.3104
▁spoil	-11.3104
▁clash	-11.3137
▁coincide	-11.3146
▁incriminat	-11.3146
▁Academy	-11.3146
▁Bombay	-11.3146
▁Hospital	-11.3146
▁Randolph	-11.3146
▁Thanksgiving	-11.3146
▁dilemma	-11.3146
▁escalate	-11.3146
▁guidance	-11.3146
▁hilarious	-11.3146
▁intoxicated	-11.3146
▁obstacle	-11.3146
▁procedure	-11.3146
▁quality	-11.3146
▁separation	-11.3146
▁twelve	-11.3146
▁vengeance	-11.3146
▁Director	-11.3146
▁proposing	-11.3146
▁throne	-11.3146
▁Cheech	-11.3146
▁Temple	-11.3146
▁Dudley	-11.3146
▁Brody	-11.3146
▁Rooney	-11.3146
▁relax	-11.3146
▁Paige	-11.3146
▁straw	-11.3146
▁steel	-11.3146
▁fetch	-11.3146
▁atomic	-11.3146
▁begging	-11.3146
▁urging	-11.3147
▁rail	-11.3147
▁Sameer	-11.3147
▁humble	-11.3147
▁serum	-11.3147
▁rehab	-11.3148
▁notebook	-11.3148
▁ease	-11.3148
▁stir	-11.3149
Lucille	-11.3149
▁discard	-11.315
▁Holden	-11.315
▁headmaster	-11.3151
▁Yard	-11.3152
▁indulge	-11.3152
▁suitable	-11.3156
▁novelist	-11.3159
▁Isabella	-11.3162
▁respectable	-11.3164
▁urge	-11.3175
▁drifter	-11.3178
▁switches	-11.3181
▁Every	-11.3182
▁gig	-11.3192
▁Party	-11.3194
▁biker	-11.3195
▁Bree	-11.3207
▁additional	-11.3219
▁Samson	-11.3223
minded	-11.3224
▁Marge	-11.3239
▁gag	-11.3246
▁surround	-11.3258
▁Way	-11.3266
Leslie	-11.328
Elizabeth	-11.328
shift	-11.3281
enberg	-11.3291
▁Bear	-11.3308
Dick	-11.3313
▁arrang	-11.3316
▁contemplate	-11.3325
▁instant	-11.3344
Cho	-11.335
plan	-11.3362
Montgomery	-11.3364
▁Seattle	-11.3364
▁Shields	-11.3364
▁confined	-11.3364
▁featuring	-11.3364
▁intimidate	-11.3364
▁loneliness	-11.3364
▁plastic	-11.3364
▁platoon	-11.3364
▁reduced	-11.3364
▁unwanted	-11.3364
▁dispatch	-11.3364
▁overbearing	-11.3364
▁throat	-11.3364
▁Gandhi	-11.3364
▁Thornton	-11.3364
▁rapidly	-11.3364
▁Alaska	-11.3364
▁Deepak	-11.3364
▁freak	-11.3364
▁Diego	-11.3364
▁Jefferson	-11.3364
▁Farrell	-11.3364
▁Traver	-11.3364
▁mute	-11.3364
▁Brett	-11.3364
▁steer	-11.3364
▁detain	-11.3364
▁debate	-11.3364
▁Rosalie	-11.3365
▁heaven	-11.3366
▁demonstration	-11.3366
▁Harmon	-11.3367
▁Nandu	-11.3367
▁washed	-11.3368
▁Senate	-11.3368
▁Dyke	-11.3369
▁belt	-11.337
▁Chitra	-11.3371
▁Freeman	-11.3372
▁Philippe	-11.3373
▁contestant	-11.3374
▁Henri	-11.3375
▁majority	-11.3375
▁pure	-11.3381
▁controlling	-11.3384
▁Sanders	-11.3386
▁Liza	-11.3388
▁Raoul	-11.3389
▁Menon	-11.339
phil	-11.3391
▁overboard	-11.3395
▁Stark	-11.3397
▁obviously	-11.3399
▁Garth	-11.34
▁partial	-11.3403
▁fiancee	-11.3403
kov	-11.3418
▁Saul	-11.342
▁Pict	-11.3425
Col	-11.3432
▁reminisce	-11.3462
▁Kerr	-11.3479
▁fearful	-11.3499
daughter	-11.3502
Arthur	-11.3503
▁frighten	-11.3544
▁tall	-11.3566
▁Seek	-11.3575
oreign	-11.3584
[8]	-11.3586
▁District	-11.3586
▁Pennsylvania	-11.3586
▁Sergei	-11.3586
▁academic	-11.3586
▁forcibly	-11.3586
▁overwhelmed	-11.3586
▁scheming	-11.3586
▁technical	-11.3586
▁technique	-11.3586
▁twice	-11.3586
▁Attorney	-11.3586
▁CEO	-11.3586
▁Friday	-11.3586
▁Julius	-11.3586
▁appalled	-11.3586
▁athlete	-11.3586
▁Buffy	-11.3586
▁clown	-11.3586
▁Chapman	-11.3586
▁Brock	-11.3586
▁initiate	-11.3586
▁sorrow	-11.3586
▁Watson	-11.3586
▁Serena	-11.3586
▁choir	-11.3586
▁Geeta	-11.3586
▁basis	-11.3586
▁valet	-11.3586
▁Kishan	-11.3586
▁Dawn	-11.3586
Dean	-11.3586
▁tennis	-11.3586
▁unlike	-11.3586
▁utter	-11.3587
▁deathbed	-11.3588
▁Cherry	-11.3589
▁Janice	-11.3589
▁Horace	-11.359
▁Bertram	-11.359
▁1940	-11.359
▁Tammy	-11.3591
▁noticing	-11.3591
▁Holland	-11.3591
▁Narayanan	-11.3592
▁bunk	-11.3594
▁conviction	-11.3596
▁accountant	-11.3598
▁Moses	-11.3598
▁Manju	-11.3599
▁McKe	-11.3602
▁Dragon	-11.3602
shady	-11.3604
▁Morton	-11.3605
▁Morrison	-11.3609
▁Scottish	-11.3612
▁Chow	-11.3613
▁Elise	-11.3613
▁Hayes	-11.3615
▁Klan	-11.3615
▁Call	-11.3616
▁ledge	-11.3617
▁donation	-11.3618
▁Rather	-11.3622
▁someday	-11.3626
▁Amin	-11.3626
action	-11.3648
▁Von	-11.3667
corp	-11.3667
▁explode	-11.3669
▁Ames	-11.3671
▁endure	-11.3673
▁merge	-11.3675
▁Bone	-11.3724
sexual	-11.373
▁sens	-11.3742
sisting	-11.3753
▁21	-11.3761
▁Helm	-11.3761
▁devastat	-11.3771
▁Ever	-11.3788
▁supervis	-11.3798
proclaim	-11.381
▁Arizona	-11.3813
▁Colorado	-11.3813
▁Connecticut	-11.3813
▁Henrietta	-11.3813
▁Olympic	-11.3813
▁Smokey	-11.3813
▁compassion	-11.3813
▁downstairs	-11.3813
▁evident	-11.3813
▁inexperience	-11.3813
▁interrogation	-11.3813
▁laundry	-11.3813
▁legitimate	-11.3813
▁obnoxious	-11.3813
▁outburst	-11.3813
▁pizza	-11.3813
▁predicament	-11.3813
▁pretext	-11.3813
▁satellite	-11.3813
▁unfaithful	-11.3813
▁colony	-11.3813
▁honour	-11.3813
▁pianist	-11.3813
▁rabbi	-11.3813
▁sketch	-11.3813
▁survival	-11.3813
▁Donovan	-11.3813
▁Livingston	-11.3813
▁Alicia	-11.3813
▁rejoin	-11.3813
▁Carroll	-11.3813
▁combine	-11.3813
▁puzzle	-11.3813
▁Nurse	-11.3813
▁Potter	-11.3813
▁extort	-11.3813
▁tramp	-11.3813
▁Francesca	-11.3814
▁laboratory	-11.3814
▁Tower	-11.3814
▁consummate	-11.3815
▁Work	-11.3815
▁humorous	-11.3815
▁ethic	-11.3816
▁Sloan	-11.3816
▁mature	-11.3817
▁Ginger	-11.3817
▁poetry	-11.3817
▁gunfight	-11.3817
▁spray	-11.3818
▁strap	-11.3818
▁Laurence	-11.3819
▁capable	-11.3821
▁foreman	-11.3821
▁Tiger	-11.3824
▁apologise	-11.3825
▁Price	-11.3827
▁Luther	-11.383
▁Reddy	-11.3831
▁considerable	-11.3833
▁Rohan	-11.3835
berry	-11.3846
▁supportive	-11.3854
▁Andie	-11.3854
▁addresses	-11.3862
▁entertainer	-11.3898
lashes	-11.391
▁thug	-11.3911
11	-11.3924
wyn	-11.3952
Dorothy	-11.3962
▁robb	-11.3971
ealthy	-11.3974
Claud	-11.3977
▁tense	-11.4
▁requir	-11.4002
▁dragg	-11.4033
▁Brewster	-11.4046
▁Calcutta	-11.4046
▁Gertrude	-11.4046
▁Giorgi	-11.4046
▁Institute	-11.4046
▁McCarthy	-11.4046
▁Moscow	-11.4046
▁Revolution	-11.4046
▁Sawyer	-11.4046
▁Yankee	-11.4046
▁activist	-11.4046
▁album	-11.4046
▁chapter	-11.4046
▁chastise	-11.4046
▁deteriorate	-11.4046
▁luggage	-11.4046
▁measure	-11.4046
▁medication	-11.4046
▁narration	-11.4046
▁paranoid	-11.4046
▁subplot	-11.4046
▁supermarket	-11.4046
▁surveillance	-11.4046
▁testifies	-11.4046
▁theatrical	-11.4046
▁townsfolk	-11.4046
▁unintentionally	-11.4046
▁unscrupulous	-11.4046
▁vomit	-11.4046
▁perceive	-11.4046
▁Social	-11.4046
▁Talbot	-11.4046
▁hippie	-11.4046
▁saloon	-11.4046
▁Suzie	-11.4046
▁chorus	-11.4046
▁plague	-11.4046
▁Vienna	-11.4046
▁sought	-11.4046
▁expand	-11.4046
▁cheque	-11.4046
▁Evie	-11.4046
▁hurrie	-11.4046
▁repent	-11.4046
▁urban	-11.4046
▁renown	-11.4046
▁mild	-11.4046
▁aftermath	-11.4046
▁elected	-11.4046
▁lung	-11.4046
▁monkey	-11.4046
▁detonate	-11.4047
▁Valmont	-11.4047
▁alibi	-11.4047
▁rooftop	-11.4047
▁Vernon	-11.4047
▁curious	-11.4048
▁jock	-11.4048
▁shave	-11.405
▁Marcia	-11.4051
▁halt	-11.4052
▁dorm	-11.4052
▁Gordie	-11.4052
▁funny	-11.4053
▁resentment	-11.4054
▁Commissioner	-11.4054
▁worthless	-11.4055
raju	-11.4057
▁Walsh	-11.4059
▁Flora	-11.4059
▁distraction	-11.4059
▁Barrow	-11.4067
▁compare	-11.4068
▁Bush	-11.4068
▁Priya	-11.4082
▁Stanton	-11.4082
▁Gord	-11.4092
▁Mayor	-11.4098
▁crook	-11.4109
▁Yeon	-11.4119
avier	-11.4128
state	-11.4133
▁terror	-11.4133
▁Govind	-11.4145
▁stumble	-11.4151
▁bug	-11.4164
▁Cab	-11.4175
What	-11.4201
Jerry	-11.4201
Adam	-11.4201
▁introduc	-11.4224
▁Chase	-11.4249
onymous	-11.4251
Deep	-11.4258
▁Marshal	-11.4278
compromising	-11.4284
▁Calogero	-11.4284
▁Hyderabad	-11.4284
▁Madeleine	-11.4284
▁Meredith	-11.4284
▁Mississippi	-11.4284
▁Murthy	-11.4284
▁Republic	-11.4284
▁dedication	-11.4284
▁domineering	-11.4284
▁fascinated	-11.4284
▁imminent	-11.4284
▁inebriated	-11.4284
▁instrument	-11.4284
▁misadventures	-11.4284
▁parlor	-11.4284
▁prosecution	-11.4284
▁structure	-11.4284
▁suicidal	-11.4284
▁Chaplin	-11.4284
▁Pinkerton	-11.4284
▁chemist	-11.4284
▁decorate	-11.4284
▁deserve	-11.4284
▁trophy	-11.4284
▁Atlanta	-11.4284
▁nevertheless	-11.4284
▁dentist	-11.4284
▁smell	-11.4284
▁Dillon	-11.4284
▁modest	-11.4284
▁Mafia	-11.4284
▁Legion	-11.4284
▁drain	-11.4284
▁spouse	-11.4284
▁brewery	-11.4284
▁Whip	-11.4284
▁molest	-11.4285
▁$5,000	-11.4285
▁Akhil	-11.4285
▁lust	-11.4285
▁Dobb	-11.4285
▁Secretary	-11.4286
▁kingdom	-11.4286
▁etc	-11.4286
▁Grover	-11.4288
▁proceedings	-11.429
▁foolish	-11.4291
▁prospective	-11.4291
▁Carolina	-11.4293
▁Grim	-11.4294
▁Franz	-11.4296
▁Pasha	-11.4296
▁Nellie	-11.4297
▁clashes	-11.4298
▁startled	-11.4304
▁suck	-11.4305
dhya	-11.4305
▁amid	-11.4305
▁Show	-11.4313
▁Johnnie	-11.4315
▁promoter	-11.4317
▁Pascal	-11.4329
▁Liam	-11.4331
▁cable	-11.4335
▁Danielle	-11.4342
▁stun	-11.4349
▁sew	-11.4359
▁frat	-11.4372
▁Kamal	-11.4375
lift	-11.4379
▁adj	-11.4394
▁eliminate	-11.4399
▁Bhai	-11.4404
▁offend	-11.4411
▁Beck	-11.442
▁lur	-11.4438
Hugh	-11.4444
Christopher	-11.4444
while	-11.4444
Barry	-11.4444
Bruce	-11.4444
Nazi	-11.4447
Danny	-11.4447
think	-11.4449
voice	-11.4471
Carl	-11.4476
logical	-11.449
▁equal	-11.4506
▁gamble	-11.4509
▁Palm	-11.4517
▁Sita	-11.452
▁humor	-11.4525
Akkineni	-11.4528
▁Distraught	-11.4528
▁Hathaway	-11.4528
▁Inspired	-11.4528
▁Pittsburgh	-11.4528
▁Prabhakar	-11.4528
▁Srinivas	-11.4528
▁dissuade	-11.4528
▁division	-11.4528
▁gratitude	-11.4528
▁immigration	-11.4528
▁merchant	-11.4528
▁reprimand	-11.4528
▁shallow	-11.4528
▁unharmed	-11.4528
▁vendor	-11.4528
▁welfare	-11.4528
▁Griffith	-11.4528
▁reclaim	-11.4528
▁segment	-11.4528
▁Bakshi	-11.4528
▁Katrina	-11.4528
▁bleeding	-11.4528
▁wolf	-11.4528
▁charade	-11.4528
▁Channel	-11.4528
▁rink	-11.4528
▁applies	-11.4528
▁bicker	-11.4528
▁guise	-11.4528
▁Rajesh	-11.4528
▁ordeal	-11.4528
▁Ganesh	-11.4528
▁Lorna	-11.4528
▁Valentine	-11.4528
▁Packer	-11.4528
▁retain	-11.4528
▁fireworks	-11.4528
▁Dream	-11.4528
▁labour	-11.4529
▁detention	-11.453
▁Neela	-11.453
▁shove	-11.453
▁administration	-11.453
▁couch	-11.453
▁$100	-11.453
▁clever	-11.4531
▁creativ	-11.4531
▁hungry	-11.4531
▁Kirby	-11.4532
▁1930	-11.4532
▁Syd	-11.4533
▁Momma	-11.4533
▁personalities	-11.4533
▁east	-11.4533
▁Dirk	-11.4534
▁arouse	-11.4535
▁brick	-11.4535
▁Bradford	-11.4535
▁Gavin	-11.4536
▁Valley	-11.4539
▁Romy	-11.454
▁wrestler	-11.454
▁resignation	-11.4542
▁ownership	-11.4543
▁Cuban	-11.4556
▁Bible	-11.4557
ould	-11.4558
▁freeze	-11.4559
▁Starr	-11.4564
▁Willis	-11.4564
angel	-11.4587
▁wage	-11.4597
▁Cash	-11.4619
lover	-11.4634
waiting	-11.4689
screen	-11.4694
grave	-11.4711
WA	-11.4725
▁quo	-11.4726
▁clim	-11.4755
Kathryn	-11.4778
▁Admiral	-11.4778
▁Cedric	-11.4778
▁September	-11.4778
▁affluent	-11.4778
▁champagne	-11.4778
▁cooperate	-11.4778
▁description	-11.4778
▁encouraging	-11.4778
▁fabric	-11.4778
▁generous	-11.4778
▁grandparents	-11.4778
▁impulsively	-11.4778
▁irresponsible	-11.4778
▁memorial	-11.4778
▁occupation	-11.4778
▁playwright	-11.4778
▁privilege	-11.4778
▁reluctance	-11.4778
▁scuffle	-11.4778
▁snobbish	-11.4778
▁verdict	-11.4778
▁Pasupathy	-11.4778
▁Savannah	-11.4778
▁Wendell	-11.4778
▁burial	-11.4778
▁conceive	-11.4778
▁hijack	-11.4778
▁adamant	-11.4778
▁dawn	-11.4778
▁sermon	-11.4778
▁unique	-11.4778
▁Winslow	-11.4778
▁Mamta	-11.4778
▁Ramesh	-11.4778
▁Vishal	-11.4778
▁waking	-11.4778
▁pleasant	-11.4778
▁spurn	-11.4778
▁solicit	-11.4778
▁Jorge	-11.4779
Manoj	-11.4779
▁whip	-11.4779
▁Saint	-11.4779
▁underworld	-11.4779
▁Odin	-11.4779
▁Ramudu	-11.478
erxes	-11.478
▁Egyptian	-11.4781
▁Crewe	-11.4781
▁Chicken	-11.4788
▁Giant	-11.4788
▁Sobel	-11.4788
▁Right	-11.4791
▁plight	-11.4792
▁missed	-11.4793
▁professe	-11.4795
▁Willard	-11.4795
▁Eight	-11.4796
▁Griffin	-11.4798
▁Coleman	-11.48
▁Death	-11.4801
▁starring	-11.4802
▁Flip	-11.4802
▁cellar	-11.4807
▁Latin	-11.4808
▁label	-11.4808
▁Gang	-11.4819
beat	-11.4823
▁buck	-11.4832
▁raft	-11.4838
▁Cock	-11.4854
Corey	-11.4889
▁reminisc	-11.492
natured	-11.4929
▁hid	-11.4943
Andrew	-11.4951
Victor	-11.4953
▁Nicol	-11.4984
▁execute	-11.5004
▁swor	-11.5004
▁Fletch	-11.5012
▁dirt	-11.5014
▁luc	-11.5025
▁Narayan	-11.5027
▁decre	-11.5028
▁industrial	-11.5031
▁Bubbles	-11.5034
▁Chatterjee	-11.5034
▁Cleveland	-11.5034
▁Drummond	-11.5034
▁Hungarian	-11.5034
▁International	-11.5034
▁Kentucky	-11.5034
▁Massachusetts	-11.5034
▁Raghav	-11.5034
▁Seymour	-11.5034
▁Unaware	-11.5034
▁Velvet	-11.5034
▁alternative	-11.5034
▁competitor	-11.5034
▁denounce	-11.5034
▁devotion	-11.5034
▁economic	-11.5034
▁evacuate	-11.5034
▁infamous	-11.5034
▁juvenile	-11.5034
▁psychic	-11.5034
▁schoolteacher	-11.5034
▁stream	-11.5034
▁unmarried	-11.5034
▁Dwight	-11.5034
▁alternate	-11.5034
▁companies	-11.5034
▁energy	-11.5034
▁erect	-11.5034
▁oblige	-11.5034
▁parallel	-11.5034
▁Becca	-11.5034
▁Eloise	-11.5034
▁Gidget	-11.5034
▁Skinner	-11.5034
▁burden	-11.5034
▁steward	-11.5034
▁wilderness	-11.5034
▁freight	-11.5034
▁hypnotize	-11.5034
▁Simmons	-11.5034
▁deported	-11.5034
▁accost	-11.5034
▁Floyd	-11.5034
▁comedian	-11.5034
▁regime	-11.5035
▁regiment	-11.5035
▁altar	-11.5035
▁Zinga	-11.5035
▁vase	-11.5035
▁Upset	-11.5036
▁Heidi	-11.5036
▁Bangar	-11.5036
▁Falco	-11.5037
▁playground	-11.5037
▁Hind	-11.5037
▁Josie	-11.5037
▁Boots	-11.5038
▁Storm	-11.5038
▁chess	-11.5039
▁Angry	-11.5039
▁Native	-11.504
▁Week	-11.5042
▁dumb	-11.5043
▁Harper	-11.5044
▁Seven	-11.5044
▁lightning	-11.5044
▁crop	-11.5046
▁potion	-11.5046
▁limo	-11.5047
▁Manners	-11.5047
▁courtship	-11.5049
▁fog	-11.5053
▁Super	-11.5056
▁Rico	-11.506
▁Feder	-11.5066
▁Brick	-11.5066
Valentin	-11.5067
Donnell	-11.5085
▁manipulat	-11.5111
Malley	-11.5139
▁enable	-11.5154
stitution	-11.518
Prade	-11.52
martial	-11.5214
filled	-11.5214
piece	-11.5214
Joseph	-11.5214
ground	-11.5216
Lauren	-11.5217
▁experienc	-11.5223
▁lone	-11.523
▁Wilma	-11.5251
▁Olive	-11.5265
▁Whil	-11.5276
▁eve	-11.5295
fictitious	-11.5297
▁Abigail	-11.5297
▁Chelsea	-11.5297
▁Costello	-11.5297
▁Hortense	-11.5297
▁Shanghai	-11.5297
▁Sheridan	-11.5297
▁delusion	-11.5297
▁entitled	-11.5297
▁impromptu	-11.5297
▁lodging	-11.5297
▁maneuver	-11.5297
▁platform	-11.5297
▁psychologist	-11.5297
▁salvage	-11.5297
▁soccer	-11.5297
▁vault	-11.5297
▁Avenue	-11.5297
▁Caldwell	-11.5297
▁dishonest	-11.5297
▁monitor	-11.5297
▁navigat	-11.5297
▁swamp	-11.5297
▁obligat	-11.5297
▁pearl	-11.5297
▁womanizer	-11.5297
▁bounc	-11.5297
▁polite	-11.5297
▁Daddy	-11.5297
▁Paddy	-11.5297
▁trading	-11.5297
▁Cobb	-11.5297
▁Herbie	-11.5297
▁Perkins	-11.5297
▁Helga	-11.5298
▁Fiona	-11.5298
▁Mamie	-11.5298
▁Brent	-11.5298
▁tiger	-11.5298
▁keen	-11.5299
▁maternal	-11.5299
▁roam	-11.5299
.[2][3]	-11.5299
Reginald	-11.5299
▁spiritual	-11.5299
▁awry	-11.5299
▁$8	-11.53
▁Airport	-11.53
uffering	-11.5303
▁grip	-11.5305
▁showgirl	-11.5305
▁Look	-11.5306
▁interaction	-11.5306
▁Darcy	-11.5307
▁Tiny	-11.5307
▁compell	-11.5308
▁seaside	-11.5308
▁Cleo	-11.5309
▁mastermind	-11.5309
profile	-11.5309
▁lamp	-11.5311
▁betting	-11.5313
▁III	-11.5313
▁Sasha	-11.5314
▁culminat	-11.5315
▁standard	-11.5319
▁Pitt	-11.5324
▁wager	-11.5328
ctur	-11.5333
▁Bolt	-11.5336
▁Monk	-11.534
▁wit	-11.5343
▁solace	-11.536
ovich	-11.5397
▁Silen	-11.5414
▁embarrass	-11.5459
hypnoti	-11.5469
employ	-11.5484
Patricia	-11.5484
Guy	-11.5485
Julie	-11.5487
quisit	-11.5502
▁Driv	-11.5522
▁Marcel	-11.5525
▁prim	-11.5531
uentin	-11.5566
▁bankrupt	-11.5566
▁detect	-11.5566
▁Bhanupratap	-11.5568
▁Cadillac	-11.5568
▁Clarissa	-11.5568
▁Dracula	-11.5568
▁Gradually	-11.5568
▁Karuppu	-11.5568
▁Lorraine	-11.5568
▁Mordecai	-11.5568
▁Saturday	-11.5568
▁Serafina	-11.5568
▁bungalow	-11.5568
▁chocolate	-11.5568
▁excessive	-11.5568
▁familiar	-11.5568
▁happier	-11.5568
▁mortgage	-11.5568
▁narrative	-11.5568
▁perpetrat	-11.5568
▁presumed	-11.5568
▁radiation	-11.5568
▁simultaneously	-11.5568
▁tycoon	-11.5568
▁Chennai	-11.5568
▁Naylor	-11.5568
▁thirty	-11.5568
▁Sakthi	-11.5568
▁Dixie	-11.5568
▁effectively	-11.5568
▁snake	-11.5568
▁Kerala	-11.5568
▁Ezra	-11.5568
▁Janaki	-11.5568
▁fisherman	-11.5568
▁ladder	-11.5568
▁Rocco	-11.5568
▁exotic	-11.5568
▁Roark	-11.5568
▁Benjie	-11.5568
▁nonetheless	-11.5568
▁excellent	-11.5568
▁depth	-11.5568
▁personnel	-11.5568
▁overseas	-11.5568
▁Letty	-11.5568
▁Flint	-11.5568
▁stray	-11.5568
▁Jasper	-11.5568
▁idealistic	-11.5569
▁bankruptcy	-11.5569
▁advertisement	-11.5569
▁drove	-11.5569
▁Conrad	-11.5569
▁Point	-11.5569
citation	-11.5569
▁forbidden	-11.557
▁everywhere	-11.557
▁industrialist	-11.5571
▁occasionally	-11.5571
▁Egg	-11.5571
▁Mavis	-11.5572
▁imagination	-11.5572
▁ongoing	-11.5572
▁disability	-11.5573
▁electricity	-11.5573
▁magician	-11.5574
▁Barker	-11.5574
▁Jules	-11.5576
▁Gerry	-11.5576
▁Foley	-11.5579
▁hardship	-11.5579
▁Month	-11.5579
▁Bertha	-11.558
ilitary	-11.5584
▁grace	-11.5585
▁Nemo	-11.5586
Reilly	-11.5595
▁contemplat	-11.5616
▁wonderful	-11.5623
uction	-11.5627
graph	-11.5628
▁organise	-11.5637
▁youthful	-11.5645
laced	-11.5649
▁tap	-11.5706
▁Venkat	-11.5729
educated	-11.5761
respect	-11.5762
secret	-11.5762
$	-11.5764
▁implie	-11.5823
Humphrey	-11.5845
▁Balakrishnan	-11.5845
▁Merteuil	-11.5845
▁Noodles	-11.5845
▁Ragatzy	-11.5845
▁Roxanne	-11.5845
▁Twenty	-11.5845
▁association	-11.5845
▁atmosphere	-11.5845
▁elephant	-11.5845
▁enormous	-11.5845
▁hysterical	-11.5845
▁independence	-11.5845
▁inhabitants	-11.5845
▁intervention	-11.5845
▁judgment	-11.5845
▁lounge	-11.5845
▁narrator	-11.5845
▁peasant	-11.5845
▁prejudice	-11.5845
▁reservation	-11.5845
▁sustain	-11.5845
▁virtual	-11.5845
Timothy	-11.5845
▁Cyrus	-11.5845
▁Detroit	-11.5845
▁Emperor	-11.5845
▁Fowler	-11.5845
▁Toronto	-11.5845
▁Turkey	-11.5845
▁Vaughn	-11.5845
▁grenade	-11.5845
▁pretense	-11.5845
rescuing	-11.5845
▁Abraham	-11.5845
▁sniper	-11.5845
▁crawl	-11.5845
▁threw	-11.5845
▁Rajiv	-11.5845
▁Tillie	-11.5845
▁lakh	-11.5845
▁disdain	-11.5845
▁Gardner	-11.5845
▁sentiment	-11.5845
▁glove	-11.5845
▁Clement	-11.5845
▁Akira	-11.5845
▁Aldous	-11.5846
▁sweep	-11.5846
▁dozen	-11.5846
▁Darnell	-11.5846
▁alliance	-11.5846
▁zone	-11.5846
▁steady	-11.5846
▁Josef	-11.5846
▁Claus	-11.5846
▁Space	-11.5846
▁Toula	-11.5846
▁Feld	-11.5846
▁Northern	-11.5846
▁drugged	-11.5846
▁Hazel	-11.5846
cultural	-11.5846
▁screenplay	-11.5846
▁barrier	-11.5846
▁gear	-11.5847
▁vast	-11.5847
▁Gustav	-11.5848
▁bakery	-11.5848
▁digging	-11.5848
▁manipulative	-11.5848
▁mouse	-11.5849
▁Crawl	-11.5851
▁Malone	-11.5852
▁22	-11.5853
▁Ridge	-11.5853
▁admiration	-11.5854
▁Dugan	-11.5855
▁brag	-11.5857
▁Huang	-11.5858
▁Chino	-11.5859
▁Arno	-11.5866
▁presid	-11.5874
▁Twin	-11.5886
▁Vada	-11.5887
▁mug	-11.5894
▁deceive	-11.5898
▁Again	-11.591
specifically	-11.593
Meena	-11.5935
getting	-11.5948
▁damag	-11.5977
▁imagin	-11.5988
▁enthusiastic	-11.5996
owitz	-11.6011
sav	-11.6024
Matthew	-11.6047
Ralph	-11.6048
Patrick	-11.6048
pilot	-11.6049
▁infuriat	-11.6089
▁overlook	-11.6094
tempered	-11.6099
▁confuse	-11.6101
▁budd	-11.6109
profess	-11.6113
▁Short	-11.6114
digger	-11.6126
▁expel	-11.613
▁Addison	-11.6131
▁Bhavani	-11.6131
▁Fernand	-11.6131
▁Gonzo	-11.6131
▁Halloween	-11.6131
▁Oregon	-11.6131
▁Schuyler	-11.6131
▁Swapna	-11.6131
▁Tennessee	-11.6131
▁admission	-11.6131
▁babies	-11.6131
▁billionaire	-11.6131
▁budget	-11.6131
▁certificate	-11.6131
▁delinquent	-11.6131
▁determination	-11.6131
▁dialogue	-11.6131
▁dilapidated	-11.6131
▁dysfunction	-11.6131
▁participant	-11.6131
▁population	-11.6131
▁promiscuous	-11.6131
▁shield	-11.6131
▁sophisticated	-11.6131
▁uncredited	-11.6131
▁unhappily	-11.6131
▁whisper	-11.6131
▁Eileen	-11.6131
▁Empire	-11.6131
▁Kimberly	-11.6131
▁bluff	-11.6131
▁demoted	-11.6131
▁diving	-11.6131
▁extinguish	-11.6131
▁fifty	-11.6131
▁recuperat	-11.6131
▁tribal	-11.6131
▁Belinda	-11.6131
▁Estelle	-11.6131
▁genius	-11.6131
▁introduction	-11.6131
▁plunge	-11.6131
▁Essex	-11.6131
▁Palace	-11.6131
▁Sayuri	-11.6131
▁Wheeler	-11.6131
▁disorder	-11.6131
▁Mountain	-11.6131
▁Square	-11.6131
▁mayhem	-11.6131
▁tenement	-11.6131
▁Trudy	-11.6131
▁square	-11.6131
▁virus	-11.6131
▁Daigo	-11.6131
▁Weaver	-11.6131
▁porch	-11.6131
▁colour	-11.6131
▁timid	-11.6131
▁Eagle	-11.6131
▁warrior	-11.6131
▁dread	-11.6131
▁pardon	-11.6131
▁Hadley	-11.6131
▁Slater	-11.6131
▁Iowa	-11.6131
▁vicar	-11.6131
▁micro	-11.6131
▁meteor	-11.6131
▁cotton	-11.6131
▁Angered	-11.6131
▁gown	-11.6132
▁bolt	-11.6132
.[1][2]	-11.6132
▁Bryan	-11.6132
▁Silk	-11.6132
▁imprisonment	-11.6132
▁boring	-11.6133
▁whiskey	-11.6133
▁Fritz	-11.6133
▁rising	-11.6133
▁imaginary	-11.6133
▁Bonnie	-11.6133
▁assets	-11.6133
▁conclude	-11.6133
▁mule	-11.6134
▁Antoine	-11.6134
▁swap	-11.6134
▁anchor	-11.6134
▁lease	-11.6135
▁disarm	-11.6137
▁23	-11.6137
Vinod	-11.6139
▁ankle	-11.614
▁settl	-11.6141
▁tune	-11.6142
▁Cecilia	-11.6143
▁bay	-11.6165
Gibb	-11.6229
▁Trish	-11.6255
trip	-11.6267
uddin	-11.6276
marita	-11.63
keep	-11.6341
Terry	-11.6342
course	-11.6343
Bud	-11.6343
Mike	-11.6391
▁Corporation	-11.6425
▁Ishmael	-11.6425
▁Khurana	-11.6425
▁Phoenix	-11.6425
▁Santiago	-11.6425
▁Torrance	-11.6425
▁Vladimir	-11.6425
▁ambassador	-11.6425
▁anticipate	-11.6425
▁application	-11.6425
▁assailant	-11.6425
▁athletic	-11.6425
▁attachment	-11.6425
▁charismatic	-11.6425
▁choosing	-11.6425
▁corporation	-11.6425
▁describing	-11.6425
▁dictator	-11.6425
▁eavesdrop	-11.6425
▁embassy	-11.6425
▁extensive	-11.6425
▁festivities	-11.6425
▁fistfight	-11.6425
▁flirtatious	-11.6425
▁glory	-11.6425
▁grieving	-11.6425
▁harvest	-11.6425
▁intimacy	-11.6425
▁miscarriage	-11.6425
▁opportunities	-11.6425
▁oppress	-11.6425
▁revolutionaries	-11.6425
▁scatter	-11.6425
▁skull	-11.6425
▁suppress	-11.6425
▁Cissy	-11.6425
▁bathtub	-11.6425
▁compound	-11.6425
▁restrict	-11.6425
▁stood	-11.6425
▁Elvira	-11.6425
▁Village	-11.6425
▁illicit	-11.6425
▁pigeon	-11.6425
▁Missouri	-11.6425
▁Sultan	-11.6425
▁Julio	-11.6425
▁Stacey	-11.6425
▁Summer	-11.6425
▁preacher	-11.6425
▁Everything	-11.6425
▁activate	-11.6425
▁probation	-11.6425
▁Abbey	-11.6425
▁spiral	-11.6425
▁cease	-11.6425
▁ignit	-11.6425
▁Evil	-11.6425
▁Kanji	-11.6425
▁bunch	-11.6425
▁Kramer	-11.6425
▁tackle	-11.6425
▁undress	-11.6425
▁Jimmie	-11.6425
▁Ramona	-11.6425
▁Blank	-11.6425
▁Molina	-11.6426
▁Yasmin	-11.6426
▁Zoe	-11.6426
▁blur	-11.6426
▁Iraq	-11.6426
▁veil	-11.6426
▁hip	-11.6427
▁Flame	-11.6427
▁Nations	-11.6428
▁Geoff	-11.6429
▁Tangie	-11.6429
▁Schani	-11.6429
▁massage	-11.6429
▁Portland	-11.643
collar	-11.643
▁inspection	-11.6431
▁Dafu	-11.6432
▁ratings	-11.6432
▁wipe	-11.6434
▁slide	-11.6434
▁punk	-11.6435
▁Shashi	-11.6438
grove	-11.6439
▁earl	-11.6439
▁Morley	-11.644
▁pipe	-11.6443
▁bake	-11.6561
▁net	-11.6588
uint	-11.6613
▁summon	-11.6623
writing	-11.6645
little	-11.6645
▁rot	-11.6648
▁method	-11.6664
about	-11.6667
▁inspect	-11.6716
▁spoke	-11.6727
▁cigar	-11.6727
▁Finkel	-11.6728
▁satisfy	-11.6728
Elisabeth	-11.6728
▁According	-11.6728
▁Bullwinkle	-11.6728
▁Cardinal	-11.6728
▁Cécile	-11.6728
▁Higgins	-11.6728
▁Sikandar	-11.6728
▁Trouble	-11.6728
▁bumbling	-11.6728
▁commence	-11.6728
▁counterfeit	-11.6728
▁earthquake	-11.6728
▁erratic	-11.6728
▁fantasies	-11.6728
▁frozen	-11.6728
▁geisha	-11.6728
▁identities	-11.6728
▁liaison	-11.6728
▁motivation	-11.6728
▁nemesis	-11.6728
▁persistent	-11.6728
▁practicing	-11.6728
▁puppet	-11.6728
▁rebuffed	-11.6728
▁rodeo	-11.6728
▁tavern	-11.6728
▁virtue	-11.6728
▁Doberman	-11.6728
▁liberal	-11.6728
▁Cyril	-11.6728
▁Dupree	-11.6728
▁Leopold	-11.6728
▁Melinda	-11.6728
▁curtain	-11.6728
▁hurry	-11.6728
▁inquires	-11.6728
▁Guddu	-11.6728
▁gorilla	-11.6728
▁essay	-11.6728
▁nanny	-11.6728
▁Mollie	-11.6728
▁wrist	-11.6728
▁demise	-11.6728
▁joking	-11.6728
▁Bhola	-11.6728
▁Horton	-11.6728
▁Nyla	-11.6728
▁botch	-11.6728
▁Leroy	-11.6728
▁disown	-11.6728
▁conquer	-11.6729
▁Addie	-11.6729
▁Sayre	-11.6729
▁extract	-11.6729
▁interior	-11.6729
▁crore	-11.6729
▁Sudan	-11.6729
▁ancestr	-11.673
▁Oskar	-11.673
▁buddies	-11.673
▁hostility	-11.673
▁countries	-11.6732
▁Small	-11.6732
▁1920	-11.6732
▁cremat	-11.6732
▁Horse	-11.6733
▁Kendall	-11.6733
▁yellow	-11.6733
▁Crane	-11.6733
▁condom	-11.6737
Suresh	-11.6738
▁clone	-11.6739
▁Kern	-11.6739
▁Fitz	-11.674
▁Chanti	-11.6742
▁Hopper	-11.6742
▁laughter	-11.6744
Sellers	-11.6746
▁hike	-11.6747
▁opt	-11.677
▁quote	-11.6791
centered	-11.6931
Charlie	-11.6958
truck	-11.6964
Greta	-11.7039
▁whisk	-11.7039
▁Clare	-11.704
▁Baldwin	-11.7041
grudgingly	-11.7041
▁Alabama	-11.7041
▁Alfalfa	-11.7041
▁Beijing	-11.7041
▁Cassidy	-11.7041
▁December	-11.7041
▁Emmett	-11.7041
▁Government	-11.7041
▁Immediately	-11.7041
▁MacKenzie	-11.7041
▁Pumpkin	-11.7041
▁Punjab	-11.7041
▁Rodrigo	-11.7041
▁ammunition	-11.7041
▁cocktail	-11.7041
▁concentration	-11.7041
▁confiscate	-11.7041
▁destitute	-11.7041
▁engaging	-11.7041
▁financier	-11.7041
▁graduating	-11.7041
▁influential	-11.7041
▁motivated	-11.7041
▁obsessive	-11.7041
▁perspective	-11.7041
▁proposition	-11.7041
▁scientific	-11.7041
▁streak	-11.7041
▁uninterested	-11.7041
▁Garrigan	-11.7041
▁Ritchie	-11.7041
▁Zohan	-11.7041
▁ancestor	-11.7041
▁unravel	-11.7041
▁mafia	-11.7041
▁Feather	-11.7041
▁Gantry	-11.7041
▁Louisiana	-11.7041
▁overthrow	-11.7041
▁Davies	-11.7041
▁Fraser	-11.7041
▁Sailor	-11.7041
▁bread	-11.7041
Ricardo	-11.7041
▁Clifford	-11.7041
▁Dharam	-11.7041
▁Dinah	-11.7041
▁Ocean	-11.7041
▁Banner	-11.7041
Ingrid	-11.7041
▁Lyman	-11.7041
▁endanger	-11.7041
▁ploy	-11.7041
▁Eastern	-11.7041
▁newcomer	-11.7041
▁doomed	-11.7041
▁landscape	-11.7041
▁belonged	-11.7042
▁favourite	-11.7042
▁Vermont	-11.7042
▁Cosmo	-11.7042
▁Tingle	-11.7043
▁craft	-11.7043
▁tiny	-11.7043
▁Barrett	-11.7043
eshwar	-11.7044
▁1944	-11.7044
▁Leaving	-11.7044
▁1941	-11.7044
▁historical	-11.7044
▁Kingdom	-11.7046
▁robberies	-11.7046
▁rowdy	-11.7047
▁solid	-11.7047
▁Series	-11.7049
▁Grandpa	-11.7049
▁lean	-11.705
▁Dorf	-11.7051
▁Kiki	-11.7053
▁Finger	-11.7054
▁patern	-11.7063
▁nest	-11.7068
print	-11.7121
elves	-11.7151
▁oversee	-11.7222
oyle	-11.7226
Ronald	-11.728
discover	-11.728
Scott	-11.728
Raymond	-11.728
something	-11.728
Jimmy	-11.7281
▁ultimate	-11.7342
▁Office	-11.7349
▁chose	-11.7351
bourne	-11.7363
dvocate	-11.7363
▁Ahmed	-11.7363
▁Baltimore	-11.7363
▁Disgusted	-11.7363
▁Festival	-11.7363
▁Gallagher	-11.7363
▁Heartbroken	-11.7363
▁Illinois	-11.7363
▁Imperial	-11.7363
▁McGuire	-11.7363
▁Rochester	-11.7363
▁Rudolph	-11.7363
▁Thackeray	-11.7363
▁anxiety	-11.7363
▁continuously	-11.7363
▁demolition	-11.7363
▁discredit	-11.7363
▁disregard	-11.7363
▁institute	-11.7363
▁lobby	-11.7363
▁mannequin	-11.7363
▁miraculous	-11.7363
▁patriarch	-11.7363
▁premiere	-11.7363
▁producing	-11.7363
▁recapture	-11.7363
▁stretch	-11.7363
▁syndicate	-11.7363
▁tabloid	-11.7363
▁transplant	-11.7363
▁traumatized	-11.7363
▁veterinarian	-11.7363
▁Circus	-11.7363
▁Fibber	-11.7363
▁Jekyll	-11.7363
▁Ministry	-11.7363
▁Pettai	-11.7363
▁Sanzang	-11.7363
▁fifth	-11.7363
▁memoir	-11.7363
▁powder	-11.7363
▁storage	-11.7363
▁Knox	-11.7363
▁Mallory	-11.7363
▁Soldier	-11.7363
▁Superior	-11.7363
▁cloud	-11.7363
▁collide	-11.7363
▁liquid	-11.7363
▁teeth	-11.7363
▁Compton	-11.7363
▁Gomez	-11.7363
▁firefighter	-11.7363
▁guesse	-11.7363
▁penthouse	-11.7363
▁Chairman	-11.7363
▁Harbor	-11.7363
▁Hepburn	-11.7363
▁governess	-11.7363
▁perfume	-11.7363
▁Marlowe	-11.7363
▁banished	-11.7363
▁composed	-11.7363
▁persists	-11.7363
▁Freak	-11.7363
▁fought	-11.7363
▁sample	-11.7363
▁tuition	-11.7363
▁Blanca	-11.7363
▁preserve	-11.7363
▁Jehan	-11.7363
▁Honai	-11.7363
▁worn	-11.7363
▁Juror	-11.7364
▁Saunders	-11.7364
▁Sutter	-11.7364
▁southern	-11.7364
▁Mauser	-11.7364
borough	-11.7364
▁knight	-11.7364
▁Alexei	-11.7364
▁cartoon	-11.7364
▁Vinay	-11.7364
▁Ahlo	-11.7364
▁Kusum	-11.7364
▁Slag	-11.7364
▁bait	-11.7364
▁Tibet	-11.7365
▁Beldar	-11.7365
▁Vidya	-11.7365
▁seminar	-11.7365
▁petition	-11.7366
▁Precious	-11.7366
▁Pollyanna	-11.7366
▁permitted	-11.7366
▁outcome	-11.7366
▁transition	-11.7366
▁adultery	-11.7367
▁Yogi	-11.7368
▁Malik	-11.7369
▁Radio	-11.7381
▁Curt	-11.7381
▁Yash	-11.7443
▁rose	-11.7512
present	-11.7608
Murray	-11.7613
Lloyd	-11.7613
Philip	-11.7613
Lynn	-11.7613
loving	-11.7615
meaning	-11.7615
normal	-11.7616
related	-11.7621
▁describe	-11.7634
iaochun	-11.7697
▁Anuradha	-11.7697
▁Council	-11.7697
▁Gaylord	-11.7697
▁Impressed	-11.7697
▁Parliament	-11.7697
▁Siddharth	-11.7697
▁accumulat	-11.7697
▁acquitted	-11.7697
▁aspirations	-11.7697
▁compulsive	-11.7697
▁concentrate	-11.7697
▁cosmetic	-11.7697
▁ecstatic	-11.7697
▁havoc	-11.7697
▁integrity	-11.7697
▁magnate	-11.7697
▁misfortune	-11.7697
▁observation	-11.7697
▁prosecute	-11.7697
▁rallies	-11.7697
▁solitary	-11.7697
▁stupid	-11.7697
▁ultimatum	-11.7697
▁unannounced	-11.7697
collaborat	-11.7697
▁Cartwright	-11.7697
▁Cassandra	-11.7697
▁Gambrelli	-11.7697
▁January	-11.7697
▁Jubeh	-11.7697
▁Maverick	-11.7697
▁McTeague	-11.7697
▁bewilder	-11.7697
▁ceiling	-11.7697
▁elegant	-11.7697
▁eleven	-11.7697
▁feast	-11.7697
▁phrase	-11.7697
▁Dagwood	-11.7697
▁Muggs	-11.7697
▁gigolo	-11.7697
▁recital	-11.7697
▁seductive	-11.7697
▁Hussein	-11.7697
▁dejected	-11.7697
▁Malibu	-11.7697
▁Mirza	-11.7697
▁Takuma	-11.7697
▁juror	-11.7697
▁temptation	-11.7697
▁Kajal	-11.7697
▁lumber	-11.7697
▁hesitation	-11.7697
▁redeem	-11.7697
▁Sheldon	-11.7697
▁Spider	-11.7697
▁backdrop	-11.7697
affirm	-11.7697
▁erotic	-11.7697
▁Smart	-11.7697
Akshay	-11.7697
▁extent	-11.7697
▁forfeit	-11.7697
▁hurl	-11.7698
▁Croft	-11.7698
▁observing	-11.7698
cDowell	-11.7698
▁ugly	-11.7698
▁neighbourhood	-11.7699
▁Elinor	-11.7699
▁poll	-11.7699
▁Baines	-11.7699
▁sadistic	-11.7699
▁shopkeeper	-11.77
▁gap	-11.77
▁cancelled	-11.77
▁lazy	-11.7701
▁cities	-11.7703
▁candle	-11.7705
▁True	-11.7706
mannered	-11.7722
▁Lorr	-11.7732
wrapped	-11.7761
▁Tej	-11.7791
nsign	-11.7812
again	-11.7835
what	-11.7956
Glenn	-11.7958
Claire	-11.7958
Betty	-11.7958
Linda	-11.7958
Sean	-11.7961
Burt	-11.7964
grand	-11.7978
▁mistak	-11.8004
▁relieve	-11.8012
▁origin	-11.8031
▁abort	-11.8036
▁Abhiram	-11.8041
▁Bathsheba	-11.8041
▁Beauregard	-11.8041
▁Delilah	-11.8041
▁Destiny	-11.8041
▁Hirayama	-11.8041
▁Kishore	-11.8041
▁Minnesota	-11.8041
▁Nikolai	-11.8041
▁Ramirez	-11.8041
▁Sabourin	-11.8041
▁Thaddeus	-11.8041
▁Ventura	-11.8041
▁agitated	-11.8041
▁clumsy	-11.8041
▁composition	-11.8041
▁confinement	-11.8041
▁distrust	-11.8041
▁guarantee	-11.8041
▁insecure	-11.8041
▁mascot	-11.8041
▁monastery	-11.8041
▁optimistic	-11.8041
▁proprietor	-11.8041
▁reclusive	-11.8041
▁recognition	-11.8041
▁rehabilitation	-11.8041
▁sleazy	-11.8041
▁unsuspecting	-11.8041
▁wardrobe	-11.8041
▁Candace	-11.8041
▁Enrique	-11.8041
▁Gekko	-11.8041
▁McCoy	-11.8041
▁RAF	-11.8041
▁Schenke	-11.8041
▁Simpson	-11.8041
▁Stripes	-11.8041
▁chapel	-11.8041
▁compliment	-11.8041
▁immense	-11.8041
▁messenger	-11.8041
▁phony	-11.8041
▁puppy	-11.8041
▁repossess	-11.8041
▁Museum	-11.8041
▁Tubby	-11.8041
▁drastic	-11.8041
▁rebellion	-11.8041
▁scoop	-11.8041
▁smiling	-11.8041
▁worship	-11.8041
▁Bianca	-11.8041
▁Kovak	-11.8041
▁unpaid	-11.8041
▁Effie	-11.8041
▁Frieda	-11.8041
▁Kalyani	-11.8041
▁Manohar	-11.8041
▁tobacco	-11.8041
▁trench	-11.8041
▁Harlem	-11.8041
▁Tilden	-11.8041
▁Appu	-11.8042
▁Dickinson	-11.8042
▁legacy	-11.8042
▁Clinton	-11.8042
▁Wonder	-11.8042
▁outlook	-11.8042
▁implore	-11.8042
▁concede	-11.8042
▁elite	-11.8042
▁vital	-11.8042
▁Tension	-11.8042
▁Suprem	-11.8042
▁Avery	-11.8042
▁reply	-11.8042
▁Potts	-11.8043
▁cement	-11.8043
Friend	-11.8043
▁heritage	-11.8043
▁Grudge	-11.8043
▁Train	-11.8043
▁sinister	-11.8043
▁Barrymore	-11.8044
▁squadron	-11.8045
▁Melvin	-11.8045
▁recite	-11.8045
▁Socks	-11.8046
▁forgot	-11.8046
▁irate	-11.8052
▁entice	-11.8052
Rosalind	-11.8054
▁statu	-11.8056
Marlon	-11.8066
Byrne	-11.8073
▁urgent	-11.8104
▁extend	-11.8116
▁notifie	-11.815
Jagg	-11.8154
▁retriev	-11.82
rigid	-11.8282
Jeremy	-11.8315
Douglas	-11.8315
Virginia	-11.8315
Jonathan	-11.8315
Harold	-11.8315
Stanley	-11.8315
Irene	-11.8315
Lewis	-11.8315
Hattie	-11.8325
▁greed	-11.8378
▁wrestle	-11.8381
addicted	-11.8384
▁Baptist	-11.8399
▁Cyrano	-11.8399
▁Dietrich	-11.8399
▁Esmeralda	-11.8399
▁Intelligence	-11.8399
▁Isaac	-11.8399
▁NASA	-11.8399
▁Pemberton	-11.8399
▁Shepherd	-11.8399
▁Subsequently	-11.8399
▁Wainwright	-11.8399
▁applause	-11.8399
▁aquarium	-11.8399
▁barbecue	-11.8399
▁compensation	-11.8399
▁disobey	-11.8399
▁dissatisfied	-11.8399
▁distinguish	-11.8399
▁enthusiasm	-11.8399
▁impassioned	-11.8399
▁indiscretion	-11.8399
▁literature	-11.8399
▁manslaughter	-11.8399
▁occupant	-11.8399
▁pornography	-11.8399
▁recurring	-11.8399
▁rooster	-11.8399
▁sandwich	-11.8399
▁scenario	-11.8399
▁slaughter	-11.8399
▁spectacular	-11.8399
▁stadium	-11.8399
▁stockbroker	-11.8399
▁territory	-11.8399
▁turmoil	-11.8399
▁uneasy	-11.8399
▁unorthodox	-11.8399
▁victorious	-11.8399
▁zombie	-11.8399
▁DVD	-11.8399
▁Mortimer	-11.8399
▁apologizing	-11.8399
▁boast	-11.8399
▁cunning	-11.8399
▁grudge	-11.8399
▁prevail	-11.8399
▁Bixby	-11.8399
▁McLean	-11.8399
▁Pavitra	-11.8399
▁Dubai	-11.8399
▁Merivel	-11.8399
▁affectionately	-11.8399
▁bootleg	-11.8399
▁Greece	-11.8399
▁Maitland	-11.8399
▁Nixon	-11.8399
▁Laxmi	-11.8399
▁Nawab	-11.8399
▁rebuke	-11.8399
▁snob	-11.8399
▁sweat	-11.8399
▁cycle	-11.8399
▁venue	-11.8399
▁videotape	-11.8399
▁insinuat	-11.8399
▁Liesel	-11.8399
▁sanity	-11.8399
▁Carrington	-11.8399
▁Flower	-11.8399
▁Peaches	-11.8399
▁geek	-11.8399
▁hammer	-11.8399
▁unseen	-11.8399
▁elude	-11.8399
▁Mischa	-11.8399
▁brew	-11.8399
▁Holmes	-11.8399
▁expectations	-11.8399
▁loath	-11.8399
▁Gaspar	-11.8399
Edmund	-11.8399
amorous	-11.8399
▁comedic	-11.84
brook	-11.84
▁melt	-11.8401
▁shine	-11.8401
▁marine	-11.8401
▁Oscy	-11.8401
▁orange	-11.8402
▁assort	-11.8402
▁gaz	-11.8423
▁tolerate	-11.8433
▁$200	-11.8445
Frances	-11.8566
signed	-11.8568
▁eliminat	-11.8591
▁Shiv	-11.8603
court	-11.8689
Julia	-11.869
▁suspend	-11.8727
▁thrill	-11.8727
▁petrol	-11.8733
Brook	-11.8766
absorbed	-11.8769
▁$25,000	-11.8769
▁Burgundy	-11.8769
▁Columbia	-11.8769
▁Griswold	-11.8769
▁Liverpool	-11.8769
▁Luckily	-11.8769
▁Mahmud	-11.8769
▁Mongkut	-11.8769
▁Monroe	-11.8769
▁Myrtle	-11.8769
▁Osborne	-11.8769
▁Stafford	-11.8769
▁Watanabe	-11.8769
▁emigrate	-11.8769
▁enamored	-11.8769
▁entrust	-11.8769
▁escapade	-11.8769
▁exploding	-11.8769
▁expulsion	-11.8769
▁footsteps	-11.8769
▁fountain	-11.8769
▁guerrilla	-11.8769
▁illiterate	-11.8769
▁incarcerated	-11.8769
▁mischievous	-11.8769
▁misinterpret	-11.8769
▁participating	-11.8769
▁privacy	-11.8769
▁purchasing	-11.8769
▁quirky	-11.8769
▁racketeer	-11.8769
▁regulation	-11.8769
▁sanitarium	-11.8769
▁subordinate	-11.8769
▁substantial	-11.8769
▁terribly	-11.8769
▁vaudeville	-11.8769
▁Balaraju	-11.8769
▁Express	-11.8769
▁Jamaica	-11.8769
▁apprentice	-11.8769
▁commune	-11.8769
▁indifferent	-11.8769
▁requirement	-11.8769
▁torpedo	-11.8769
▁tribute	-11.8769
▁Dubois	-11.8769
▁Manmohan	-11.8769
▁Wilcox	-11.8769
▁contrary	-11.8769
▁crucial	-11.8769
▁depriv	-11.8769
▁enrages	-11.8769
▁Number	-11.8769
▁Savage	-11.8769
▁Sinatra	-11.8769
▁entangle	-11.8769
▁injustice	-11.8769
▁Singhania	-11.8769
▁Verloc	-11.8769
▁unleash	-11.8769
▁visual	-11.8769
▁Zealand	-11.8769
▁vocal	-11.8769
▁constable	-11.8769
▁reopen	-11.8769
▁derail	-11.8769
▁Lahey	-11.8769
▁Denver	-11.8769
▁Cairo	-11.8769
▁Ritter	-11.8769
▁blunt	-11.8769
▁Glass	-11.8769
▁postpone	-11.8769
▁Igor	-11.8769
▁Blythe	-11.8769
▁Melbourne	-11.8769
▁chimp	-11.877
▁fanatic	-11.877
▁loop	-11.877
▁boom	-11.877
sumption	-11.877
Imogen	-11.877
▁slapp	-11.877
▁Goldberg	-11.877
ggett	-11.877
▁Faust	-11.8771
▁Shetty	-11.8771
▁Class	-11.8772
▁dire	-11.8772
▁Mangal	-11.8776
Decker	-11.8776
▁Franci	-11.8795
▁Help	-11.881
▁Ladd	-11.8856
lmost	-11.8983
▁terroriz	-11.9005
iagara	-11.9018
control	-11.907
▁Drago	-11.9136
Artagnan	-11.9154
sufficient	-11.9154
▁Bhujang	-11.9154
▁Chappelle	-11.9154
▁Complication	-11.9154
▁Fitzgerald	-11.9154
▁Kipps	-11.9154
▁Kolkata	-11.9154
▁Matilda	-11.9154
▁Mauricio	-11.9154
▁Mukherjee	-11.9154
▁Willoughby	-11.9154
▁collision	-11.9154
▁combination	-11.9154
▁ghetto	-11.9154
▁glimpse	-11.9154
▁horrible	-11.9154
▁inevitable	-11.9154
▁malfunction	-11.9154
▁narrating	-11.9154
▁paralyzed	-11.9154
▁philosophy	-11.9154
▁sculpture	-11.9154
▁semester	-11.9154
▁strategy	-11.9154
▁superintendent	-11.9154
▁tomorrow	-11.9154
▁unpopular	-11.9154
▁Grendel	-11.9154
▁HIV	-11.9154
▁Hinkle	-11.9154
▁Lalitha	-11.9154
▁Octavian	-11.9154
▁Sylvester	-11.9154
▁Ursula	-11.9154
▁Vasanthi	-11.9154
▁Viktor	-11.9154
▁cabaret	-11.9154
▁explicit	-11.9154
▁unethical	-11.9154
▁vacant	-11.9154
▁Clancy	-11.9154
▁Laszlo	-11.9154
▁Pearson	-11.9154
▁essential	-11.9154
▁heartfelt	-11.9154
▁merciless	-11.9154
▁Deputy	-11.9154
▁Theodora	-11.9154
uebec	-11.9154
▁Chopra	-11.9154
▁Derrick	-11.9154
▁Fellow	-11.9154
▁Hundert	-11.9154
▁massacre	-11.9154
▁generate	-11.9154
▁dairy	-11.9154
▁montage	-11.9154
▁Tilley	-11.9154
▁Valiant	-11.9154
▁deceit	-11.9154
▁Bergman	-11.9154
▁Family	-11.9154
▁Barrington	-11.9154
▁Hooch	-11.9154
▁Ryder	-11.9154
▁northern	-11.9154
▁Finley	-11.9154
▁creation	-11.9154
▁handgun	-11.9154
Theodore	-11.9154
▁anguish	-11.9154
Emmanuel	-11.9154
▁Blood	-11.9154
▁Sherwood	-11.9154
▁beggar	-11.9154
▁mercy	-11.9154
▁ferry	-11.9154
▁Dustin	-11.9154
▁imitat	-11.9154
▁autograph	-11.9154
▁Nestor	-11.9154
▁Pratt	-11.9154
▁bullfight	-11.9154
▁typewriter	-11.9154
Rhys	-11.9155
▁ruling	-11.9155
▁Helton	-11.9155
▁tomboy	-11.9155
hydr	-11.9155
▁Theatre	-11.9155
▁Wesley	-11.9155
Anupam	-11.9155
▁Hoyt	-11.9155
▁Marquis	-11.9155
▁Barnes	-11.9155
▁Silas	-11.9156
▁Shore	-11.9161
handling	-11.9213
▁disconnect	-11.9242
▁Place	-11.9262
held	-11.9274
fraid	-11.9337
Stock	-11.935
▁tame	-11.9469
Sidney	-11.947
Clark	-11.947
country	-11.947
white	-11.947
lived	-11.9472
▁cloth	-11.948
fashioned	-11.948
film	-11.9489
▁Reali	-11.9529
existent	-11.9544
otorcycle	-11.9553
Amitabh	-11.9554
philandering	-11.9554
▁Buddhist	-11.9554
▁Championship	-11.9554
▁Confederate	-11.9554
▁Consuelo	-11.9554
▁Corporal	-11.9554
▁Devastated	-11.9554
▁Jjaks	-11.9554
▁acclaim	-11.9554
▁adolescent	-11.9554
▁artifact	-11.9554
▁artificial	-11.9554
▁bruised	-11.9554
▁commotion	-11.9554
▁concrete	-11.9554
▁controversial	-11.9554
▁distinct	-11.9554
▁embroil	-11.9554
▁espionage	-11.9554
▁expatriate	-11.9554
▁exposure	-11.9554
▁fragile	-11.9554
▁futile	-11.9554
▁impostor	-11.9554
▁premature	-11.9554
▁protégé	-11.9554
▁staircase	-11.9554
▁surrogate	-11.9554
▁swift	-11.9554
▁universe	-11.9554
▁vague	-11.9554
▁vengeful	-11.9554
▁vignette	-11.9554
▁vulnerable	-11.9554
▁Bachchan	-11.9554
▁Brantley	-11.9554
▁Carmichael	-11.9554
▁Casanova	-11.9554
▁Guilala	-11.9554
▁Hightower	-11.9554
▁Mirabelle	-11.9554
▁Miyoharu	-11.9554
▁Ouimet	-11.9554
▁Schultz	-11.9554
▁Sutherland	-11.9554
▁Swift	-11.9554
▁Taggart	-11.9554
▁bureaucra	-11.9554
▁congress	-11.9554
▁dubious	-11.9554
▁faculty	-11.9554
▁whistle	-11.9554
▁Cardigan	-11.9554
▁Conklin	-11.9554
▁Diamond	-11.9554
▁Dublin	-11.9554
▁Schreck	-11.9554
▁Shobha	-11.9554
▁procure	-11.9554
▁sacred	-11.9554
▁simulat	-11.9554
nonsense	-11.9554
▁Aurora	-11.9554
▁Rynn	-11.9554
▁Wagner	-11.9554
▁catatoni	-11.9554
▁manifest	-11.9554
evaluate	-11.9554
▁Trask	-11.9554
▁breach	-11.9554
▁slacker	-11.9554
▁strait	-11.9554
▁PTA	-11.9554
▁devout	-11.9554
▁stamp	-11.9554
▁Bogart	-11.9554
▁Women	-11.9554
▁Robbins	-11.9554
▁insanity	-11.9554
▁Kushal	-11.9554
▁Patrol	-11.9554
▁Bhaskar	-11.9554
▁obese	-11.9554
▁microphone	-11.9554
krishna	-11.9554
▁brake	-11.9554
▁Bobbie	-11.9554
▁navy	-11.9554
▁Irma	-11.9554
▁spear	-11.9554
▁Derby	-11.9554
▁valley	-11.9554
▁invalid	-11.9554
Prabhu	-11.9554
▁Front	-11.9554
▁Winkle	-11.9554
▁Yates	-11.9555
▁breed	-11.9556
▁buff	-11.9557
Giri	-11.9775
gainst	-11.9786
Govinda	-11.9792
▁enabl	-11.9825
establish	-11.9886
correct	-11.9886
convict	-11.9887
effect	-11.9887
Russell	-11.9887
Harris	-11.9887
cliff	-11.9887
▁posse	-11.989
▁disappoint	-11.9926
▁Michel	-11.9942
▁Korea	-11.9953
ecutive	-11.9968
onetheless	-11.997
▁plummet	-11.997
▁Aarush	-11.997
▁Blossom	-11.997
▁Convinced	-11.997
▁Gretchen	-11.997
▁Hyacinth	-11.997
▁Jyothi	-11.997
▁Krishnanunni	-11.997
▁McLeod	-11.997
▁Mendoza	-11.997
▁NFL	-11.997
▁Neumann	-11.997
▁October	-11.997
▁Oklahoma	-11.997
▁Phantom	-11.997
▁Prescott	-11.997
▁Rodriguez	-11.997
▁Sulaiman	-11.997
▁Suyuan	-11.997
▁Terrence	-11.997
▁administrator	-11.997
▁admonishe	-11.997
▁astronaut	-11.997
▁bridal	-11.997
▁casket	-11.997
▁challenging	-11.997
▁congregation	-11.997
▁contradict	-11.997
▁daydream	-11.997
▁disembark	-11.997
▁fantasize	-11.997
▁headmistress	-11.997
▁identification	-11.997
▁impregnate	-11.997
▁intimidating	-11.997
▁librarian	-11.997
▁motorbike	-11.997
▁pornographic	-11.997
▁qualities	-11.997
▁remarried	-11.997
▁replica	-11.997
▁spectacle	-11.997
▁supernatural	-11.997
▁thoroughly	-11.997
▁tranquil	-11.997
▁unidentified	-11.997
▁unrequited	-11.997
▁yield	-11.997
Gummadi	-11.997
▁Baumann	-11.997
▁Copeland	-11.997
▁Gaurav	-11.997
▁Isolde	-11.997
▁genetic	-11.997
▁sobbing	-11.997
▁Barkley	-11.997
▁Cochise	-11.997
▁Delacro	-11.997
▁Nathaniel	-11.997
▁plenty	-11.997
▁Carlotta	-11.997
▁Hampton	-11.997
▁Macbeth	-11.997
▁illustr	-11.997
▁rematch	-11.997
▁usurp	-11.997
▁Swami	-11.997
▁Townsend	-11.997
▁likewise	-11.997
▁sidekick	-11.997
▁Cloud	-11.997
▁Engine	-11.997
▁aloud	-11.997
▁Muriel	-11.997
▁skating	-11.997
uigley	-11.997
▁Glory	-11.997
▁Mathew	-11.997
▁Trinian	-11.997
▁Aparna	-11.997
▁Mishra	-11.997
discriminat	-11.997
▁dowry	-11.997
▁Aimee	-11.997
▁meager	-11.997
▁Phelps	-11.997
▁Rahim	-11.997
▁chores	-11.997
▁Fleet	-11.997
▁vacate	-11.997
▁Pitka	-11.997
▁captors	-11.997
▁fiery	-11.997
▁defuse	-11.997
▁complies	-11.9971
▁Sterling	-11.9971
▁sperm	-11.9971
▁Woman	-11.9971
▁gender	-11.9971
▁Bentley	-11.9971
▁Crisp	-11.9971
▁Spark	-11.9971
▁Lyon	-11.9971
▁depot	-11.9971
▁Stokes	-11.9971
▁vandaliz	-11.9971
▁visa	-11.9971
▁Akari	-11.9971
▁Kaali	-11.9971
▁Bingham	-11.9971
▁shack	-11.9971
André	-11.9971
woken	-11.9972
▁stem	-11.9972
▁Jaffa	-11.9974
▁notify	-11.9975
▁Jeet	-11.9976
Montagu	-11.9977
Shawn	-12.0016
recious	-12.0016
tention	-12.009
▁Bressl	-12.0129
▁conclud	-12.0181
Frou	-12.026
climbing	-12.0303
minute	-12.0321
Cecil	-12.0322
Catherine	-12.0322
Krishna	-12.0322
Ellen	-12.0322
first	-12.0322
grade	-12.0325
▁reunit	-12.0331
▁burie	-12.038
▁Kendal	-12.0399
▁Aloysius	-12.0405
▁Auschwitz	-12.0405
▁Bollywood	-12.0405
▁Connolly	-12.0405
▁Knowles	-12.0405
▁Mortdecai	-12.0405
▁Narasimha	-12.0405
▁Palfrey	-12.0405
▁Percival	-12.0405
▁Ranjith	-12.0405
▁Roosevelt	-12.0405
▁Security	-12.0405
▁Sylvie	-12.0405
▁Thailand	-12.0405
▁Wednesday	-12.0405
▁Ziggy	-12.0405
▁adventurous	-12.0405
▁cathedral	-12.0405
▁chaotic	-12.0405
▁childbirth	-12.0405
▁circuit	-12.0405
▁dolphin	-12.0405
▁drought	-12.0405
▁dynamic	-12.0405
▁economy	-12.0405
▁endeavor	-12.0405
▁friction	-12.0405
▁jeopardy	-12.0405
▁monologue	-12.0405
▁quarantine	-12.0405
▁racism	-12.0405
▁rampage	-12.0405
▁revolt	-12.0405
▁romancing	-12.0405
▁saboteur	-12.0405
▁separating	-12.0405
▁transpires	-12.0405
▁treason	-12.0405
▁upbringing	-12.0405
▁vegetable	-12.0405
▁Artiguez	-12.0405
▁Bahadur	-12.0405
▁Douzi	-12.0405
▁Kavanaugh	-12.0405
▁Kermit	-12.0405
▁Nichols	-12.0405
▁Shmuel	-12.0405
▁Shwetha	-12.0405
▁Tinkle	-12.0405
▁Wisconsin	-12.0405
▁aghast	-12.0405
▁ambiguous	-12.0405
▁cannabis	-12.0405
▁cautious	-12.0405
▁circulat	-12.0405
▁evolv	-12.0405
▁impatient	-12.0405
▁jeopardiz	-12.0405
▁reinforce	-12.0405
▁speculat	-12.0405
▁Agency	-12.0405
▁Corbett	-12.0405
▁Merchant	-12.0405
▁Miguel	-12.0405
▁Outraged	-12.0405
▁jewellery	-12.0405
▁clumsi	-12.0405
▁momentarily	-12.0405
▁strategi	-12.0405
▁Beatles	-12.0405
▁Constable	-12.0405
▁Rutherford	-12.0405
▁Therefore	-12.0405
▁saddened	-12.0405
▁tumor	-12.0405
▁mogul	-12.0405
▁seduction	-12.0405
▁Damien	-12.0405
▁unveil	-12.0405
ommissar	-12.0405
▁Looney	-12.0405
▁applied	-12.0405
▁Racine	-12.0405
▁Fonda	-12.0405
▁Alpha	-12.0405
▁caravan	-12.0405
▁backpack	-12.0405
▁pause	-12.0405
▁Slade	-12.0405
▁Mercer	-12.0405
▁Friendly	-12.0405
▁Matron	-12.0405
▁Petty	-12.0405
▁bleak	-12.0405
esteem	-12.0405
▁Sutton	-12.0405
▁brash	-12.0406
▁guru	-12.0406
▁Frost	-12.0406
▁tongue	-12.0406
▁Lipp	-12.0407
defence	-12.0408
arnish	-12.0442
▁deriv	-12.0473
arajan	-12.0595
▁broad	-12.0677
▁specific	-12.0721
enthusiastically	-12.0753
▁wrap	-12.0772
ordinary	-12.0776
protect	-12.0776
league	-12.0776
June	-12.0777
help	-12.0777
▁fiction	-12.085
▁Virgin	-12.0857
ceremon	-12.0859
▁resurface	-12.086
definitely	-12.086
▁AWOL	-12.086
▁Aboriginal	-12.086
▁Bangalore	-12.086
▁Beethoven	-12.086
▁Blondie	-12.086
▁Cutshaw	-12.086
▁Dolphin	-12.086
▁Facebook	-12.086
▁Filkins	-12.086
▁Hebrew	-12.086
▁Holloway	-12.086
▁Internet	-12.086
▁Istanbul	-12.086
▁Lermontov	-12.086
▁McCallister	-12.086
▁McKinley	-12.086
▁McNamara	-12.086
▁Morocco	-12.086
▁Nebraska	-12.086
▁Pharaoh	-12.086
▁Phipps	-12.086
▁Radhika	-12.086
▁Renault	-12.086
▁Rodolphe	-12.086
▁Tyrell	-12.086
▁Yazhini	-12.086
▁Zélie	-12.086
▁antagoniz	-12.086
▁brink	-12.086
▁capacity	-12.086
▁celebrities	-12.086
▁chaperone	-12.086
▁competitive	-12.086
▁credentials	-12.086
▁curiosity	-12.086
▁delicate	-12.086
▁dissolve	-12.086
▁divorcing	-12.086
▁exacerbat	-12.086
▁frenzy	-12.086
▁genital	-12.086
▁grandchildren	-12.086
▁hapless	-12.086
▁hitchhiking	-12.086
▁idyllic	-12.086
▁incompetence	-12.086
▁lorry	-12.086
▁morgue	-12.086
▁occupy	-12.086
▁patience	-12.086
▁propaganda	-12.086
▁rainstorm	-12.086
▁reconciling	-12.086
▁reconstruct	-12.086
▁renovate	-12.086
▁ridiculous	-12.086
▁savagely	-12.086
▁superstitious	-12.086
▁technology	-12.086
▁thunderstorm	-12.086
▁unhappiness	-12.086
▁unpleasant	-12.086
▁Bartleby	-12.086
▁Chambers	-12.086
▁Garrett	-12.086
▁Lisbon	-12.086
▁Manchester	-12.086
▁Melvyn	-12.086
▁Schneider	-12.086
▁Shitou	-12.086
▁Vatican	-12.086
▁enlighten	-12.086
▁invisible	-12.086
▁offensive	-12.086
▁Burnett	-12.086
▁Chameli	-12.086
▁Lambda	-12.086
▁Lugash	-12.086
▁dignity	-12.086
▁LSD	-12.086
▁Tagore	-12.086
▁recipe	-12.086
▁revival	-12.086
▁rumour	-12.086
▁scratch	-12.086
▁steak	-12.086
▁vanishes	-12.086
▁Carlisle	-12.086
▁Merrill	-12.086
▁Telford	-12.086
▁Zelda	-12.086
▁Fortune	-12.086
▁Ganguly	-12.086
▁okay	-12.086
▁battery	-12.086
▁Lumpy	-12.086
▁Cruz	-12.086
▁blade	-12.086
▁Eadie	-12.086
▁Peace	-12.086
▁bonus	-12.086
▁Slowly	-12.086
▁patent	-12.086
▁Snug	-12.086
▁Caleb	-12.086
▁Stefan	-12.086
▁Maddin	-12.086
▁amputat	-12.086
▁Cramer	-12.086
▁Eaton	-12.086
▁unfit	-12.086
▁Assistan	-12.0862
crazed	-12.0863
Scrap	-12.0864
▁fanci	-12.0866
Manisha	-12.0872
▁Torp	-12.088
izzy	-12.0884
▁sacrific	-12.0946
Kerry	-12.1143
▁deceiv	-12.1245
Spencer	-12.1252
Bernard	-12.1252
Ajay	-12.1252
Norman	-12.1253
Roger	-12.1253
▁shatter	-12.1293
▁advertise	-12.1333
▁scholar	-12.1335
▁instinct	-12.1336
voluntarily	-12.1336
▁Banerjee	-12.1336
▁Bosepandi	-12.1336
▁Buchanan	-12.1336
▁Confused	-12.1336
▁Cummings	-12.1336
▁Leonidas	-12.1336
▁Nightingale	-12.1336
▁Parvathi	-12.1336
▁Pengallan	-12.1336
▁Philippines	-12.1336
▁Rajeswari	-12.1336
▁Ranganatham	-12.1336
▁Roxanna	-12.1336
▁Saraswati	-12.1336
▁Schwartz	-12.1336
▁Sivagurunathan	-12.1336
▁Smitty	-12.1336
▁Sowmya	-12.1336
▁Szpilman	-12.1336
▁Tiffany	-12.1336
▁Titanic	-12.1336
▁Windermere	-12.1336
▁Worthington	-12.1336
▁Zuckerberg	-12.1336
▁assembly	-12.1336
▁bounty	-12.1336
▁bribing	-12.1336
▁collapsing	-12.1336
▁commend	-12.1336
▁consequently	-12.1336
▁declaration	-12.1336
▁declining	-12.1336
▁disgruntled	-12.1336
▁eligible	-12.1336
▁elusive	-12.1336
▁embittered	-12.1336
▁exclaim	-12.1336
▁exploring	-12.1336
▁extravagant	-12.1336
▁harbour	-12.1336
▁hypnosis	-12.1336
▁matriarch	-12.1336
▁melodrama	-12.1336
▁merchandise	-12.1336
▁migrant	-12.1336
▁narcotics	-12.1336
▁patriotic	-12.1336
▁persecut	-12.1336
▁qualify	-12.1336
▁renounce	-12.1336
▁sabotaging	-12.1336
▁turkey	-12.1336
▁unfinished	-12.1336
▁unwelcome	-12.1336
▁vintage	-12.1336
▁workaholic	-12.1336
Sharmila	-12.1336
phobia	-12.1336
▁Avinash	-12.1336
▁Benedict	-12.1336
▁Beulah	-12.1336
▁Clegg	-12.1336
▁Cowboy	-12.1336
▁Harbottle	-12.1336
▁Kendrick	-12.1336
▁Sunshine	-12.1336
▁Swedish	-12.1336
▁Turpin	-12.1336
▁Vikramadhitya	-12.1336
▁Yadav	-12.1336
▁disrespectful	-12.1336
▁ethnic	-12.1336
▁jilted	-12.1336
▁ninja	-12.1336
▁platonic	-12.1336
▁retract	-12.1336
▁snoop	-12.1336
▁tamper	-12.1336
▁tirade	-12.1336
▁vivid	-12.1336
fertility	-12.1336
▁Fritton	-12.1336
▁Fugui	-12.1336
▁Ignat	-12.1336
▁MLA	-12.1336
▁literary	-12.1336
▁shoplifting	-12.1336
▁Bharose	-12.1336
▁Danceny	-12.1336
▁penalty	-12.1336
▁Clipper	-12.1336
▁Cristal	-12.1336
▁retiring	-12.1336
▁Mannix	-12.1336
dubbed	-12.1336
▁Trantor	-12.1336
▁promoting	-12.1336
▁sniff	-12.1336
▁IRS	-12.1336
▁Divine	-12.1336
▁helmet	-12.1336
▁revoke	-12.1336
▁Klaus	-12.1336
▁misfit	-12.1336
▁Bholi	-12.1336
▁Tramp	-12.1336
▁Bethany	-12.1336
▁Tannen	-12.1336
▁Drogo	-12.1336
▁animated	-12.1336
▁Gypo	-12.1336
▁exonerat	-12.1336
▁cheek	-12.1336
▁Einar	-12.1336
▁Troop	-12.1336
▁reassign	-12.1336
Vivien	-12.1338
Bubba	-12.1338
▁Labor	-12.1339
Terence	-12.1342
▁Sparta	-12.1343
▁Monsi	-12.1344
▁excel	-12.1354
Bharath	-12.1567
▁persuad	-12.1581
Stuart	-12.1752
Eugene	-12.1752
Brenda	-12.1752
confidence	-12.1752
obsessed	-12.1752
Harvey	-12.1752
Mickey	-12.1752
Vincent	-12.1752
Nancy	-12.1753
Larry	-12.1753
Cliff	-12.1755
▁unwitting	-12.1811
etween	-12.1833
▁Business	-12.1836
▁Addams	-12.1836
▁Albinizi	-12.1836
▁Borgia	-12.1836
▁Chintamani	-12.1836
▁Concerned	-12.1836
▁Coriolanus	-12.1836
▁Drillbit	-12.1836
▁Egelichi	-12.1836
▁Elsinore	-12.1836
▁Epifania	-12.1836
▁Faulkner	-12.1836
▁Galloway	-12.1836
▁Greenwich	-12.1836
▁Honolulu	-12.1836
▁Humiliated	-12.1836
▁Hussain	-12.1836
▁Jerusalem	-12.1836
▁Murdoch	-12.1836
▁Nikumbh	-12.1836
▁Othello	-12.1836
▁Parvathy	-12.1836
▁Pendleton	-12.1836
▁Reluctant	-12.1836
▁Society	-12.1836
▁Tijuana	-12.1836
▁Véronique	-12.1836
▁Wentworth	-12.1836
▁Winnipeg	-12.1836
▁Yashwant	-12.1836
▁administer	-12.1836
▁animosity	-12.1836
▁bohemian	-12.1836
▁bookstore	-12.1836
▁bubble	-12.1836
▁discomfort	-12.1836
▁displeasure	-12.1836
▁embracing	-12.1836
▁empire	-12.1836
▁enforcement	-12.1836
▁entourage	-12.1836
▁epidemic	-12.1836
▁eulogy	-12.1836
▁flamboyant	-12.1836
▁hallucinate	-12.1836
▁handicapped	-12.1836
▁incensed	-12.1836
▁inexplicably	-12.1836
▁infatuation	-12.1836
▁inflict	-12.1836
▁lipstick	-12.1836
▁maintenance	-12.1836
▁malicious	-12.1836
▁mutiny	-12.1836
▁paramedic	-12.1836
▁paranoia	-12.1836
▁pattern	-12.1836
▁pharmacy	-12.1836
▁precinct	-12.1836
▁prodigy	-12.1836
▁quarry	-12.1836
▁recluse	-12.1836
▁recollect	-12.1836
▁rendition	-12.1836
▁retribution	-12.1836
▁sobriety	-12.1836
▁superficial	-12.1836
▁symptoms	-12.1836
▁televised	-12.1836
▁unfairly	-12.1836
▁unimpressed	-12.1836
▁Berkeley	-12.1836
▁Brookfield	-12.1836
▁Claudio	-12.1836
▁Hendrick	-12.1836
▁Humbert	-12.1836
▁Kinnear	-12.1836
▁Peabody	-12.1836
▁Roxane	-12.1836
▁Windsor	-12.1836
▁converge	-12.1836
▁dictate	-12.1836
▁disciple	-12.1836
▁purported	-12.1836
▁thirteen	-12.1836
▁vulgar	-12.1836
▁Hiroshi	-12.1836
▁Pootie	-12.1836
▁Stevie	-12.1836
▁Tourvel	-12.1836
▁clique	-12.1836
▁fishermen	-12.1836
▁gasoline	-12.1836
▁repris	-12.1836
▁envious	-12.1836
▁hobby	-12.1836
▁Aziz	-12.1836
▁Duchess	-12.1836
▁allegation	-12.1836
▁illusion	-12.1836
▁Kuttan	-12.1836
▁Blonde	-12.1836
▁Gideon	-12.1836
▁Sanwari	-12.1836
▁siege	-12.1836
▁Arturo	-12.1836
▁Bharti	-12.1836
▁matron	-12.1836
▁Porky	-12.1836
▁Laxman	-12.1836
▁Bagley	-12.1836
▁Lurene	-12.1836
▁Pringle	-12.1836
▁newsreel	-12.1836
▁Frail	-12.1836
▁Ranger	-12.1837
▁translate	-12.1837
Burgess	-12.1839
Anoop	-12.1849
▁rename	-12.1857
perfect	-12.1861
Kelsey	-12.1987
▁prescribe	-12.2008
connected	-12.2069
▁demonstrat	-12.2146
scribed	-12.218
Maureen	-12.2278
Lionel	-12.2278
Rachel	-12.2279
▁weigh	-12.2308
▁imprison	-12.2317
▁frustrate	-12.2332
▁Commission	-12.2342
cracker	-12.2349
▁persuasi	-12.2362
▁surreal	-12.2362
[9]	-12.2362
▁Beatriz	-12.2362
▁Building	-12.2362
▁Cadwalader	-12.2362
▁Chauvelin	-12.2362
▁Chevalier	-12.2362
▁Chevrolet	-12.2362
▁Cigaret	-12.2362
▁César	-12.2362
▁Driscoll	-12.2362
▁Eisenheim	-12.2362
▁Ephraim	-12.2362
▁Freckles	-12.2362
▁Gundamma	-12.2362
▁Hubbard	-12.2362
▁Kasthuri	-12.2362
▁Konrad	-12.2362
▁Lurkalot	-12.2362
▁Magruder	-12.2362
▁McHale	-12.2362
▁Michigan	-12.2362
▁Midwest	-12.2362
▁Muldoon	-12.2362
▁Ontario	-12.2362
▁Pinnock	-12.2362
▁Prottle	-12.2362
▁Public	-12.2362
▁Rhonda	-12.2362
▁Rhonnie	-12.2362
▁Schindler	-12.2362
▁Shivasagar	-12.2362
▁Slattery	-12.2362
▁Spaulding	-12.2362
▁Thorndyke	-12.2362
▁amazement	-12.2362
▁bordello	-12.2362
▁cafeteria	-12.2362
▁cannibal	-12.2362
▁closure	-12.2362
▁consternation	-12.2362
▁defensive	-12.2362
▁derelict	-12.2362
▁detachment	-12.2362
▁enterprise	-12.2362
▁entrepreneur	-12.2362
▁gullible	-12.2362
▁gymnastics	-12.2362
▁hurricane	-12.2362
▁hypocrisy	-12.2362
▁mercenary	-12.2362
▁militia	-12.2362
▁overprotective	-12.2362
▁paralysis	-12.2362
▁parody	-12.2362
▁peculiar	-12.2362
▁psychology	-12.2362
▁redemption	-12.2362
▁rehearse	-12.2362
▁renovation	-12.2362
▁rupees	-12.2362
▁satisfaction	-12.2362
▁skeleton	-12.2362
▁technician	-12.2362
▁unnoticed	-12.2362
▁windshield	-12.2362
▁wisdom	-12.2362
▁Armenian	-12.2362
▁Café	-12.2362
▁Grizard	-12.2362
▁Manzhen	-12.2362
▁Solomon	-12.2362
▁Thunderbird	-12.2362
▁Tromeo	-12.2362
▁Worried	-12.2362
▁attribut	-12.2362
▁cronies	-12.2362
▁misdeeds	-12.2362
▁prohibit	-12.2362
▁substance	-12.2362
▁Bonnard	-12.2362
▁Fogell	-12.2362
▁Gleason	-12.2362
▁Halliday	-12.2362
▁Jaguar	-12.2362
▁Lambert	-12.2362
▁Lemmon	-12.2362
▁McGinty	-12.2362
